<unk>	0
<s>	0
</s>	0
<pad>	0
<aym>	0
<bzd>	0
<cni>	0
<ctp>	0
<gn>	0
<hch>	0
<nah>	0
<oto>	0
<quy>	0
<shp>	0
<tar>	0
.	-3.50419
,	-3.54013
▁de	-3.79427
ʼ	-4.18355
s	-4.30247
▁a	-4.36027
▁la	-4.42268
▁que	-4.60516
▁y	-4.78551
▁en	-4.85456
▁el	-4.90128
▁ha	-4.93067
e	-4.9638
▁	-4.98674
:	-5.02729
n	-5.0704
a	-5.16543
?	-5.18406
'	-5.19861
▁(	-5.20037
i	-5.26286
▁los	-5.26542
▁¿	-5.35981
▁se	-5.49803
r	-5.52053
ta	-5.52367
pe	-5.62293
)	-5.66237
▁o	-5.66888
▁no	-5.7544
▁su	-5.77545
▁“	-5.81448
’	-5.83278
▁con	-5.83633
▁mba	-5.84712
▁Jehová	-5.85712
▁del	-5.88344
▁un	-5.8838
▁es	-5.90241
▁.	-5.91582
▁las	-5.9203
▁umi	-5.93496
pa	-5.93653
va	-5.9719
▁pe	-5.9743
▁para	-5.97768
-	-5.9975
▁por	-6.03768
o	-6.1028
ra	-6.1094
▁lo	-6.14901
▁una	-6.15531
▁|	-6.19177
mi	-6.20824
▁hag̃ua	-6.22071
y	-6.23257
ha	-6.25236
re	-6.25347
m	-6.25795
do	-6.28881
na	-6.29258
▁A	-6.3022
▁he	-6.31927
u	-6.321
▁ko	-6.36687
▁Dios	-6.38429
ma	-6.40448
pi	-6.48041
l	-6.48867
qa	-6.48871
▁al	-6.51765
t	-6.52965
te	-6.53213
▁va	-6.53456
▁-	-6.53641
▁peteĩ	-6.57209
▁La	-6.58449
ti	-6.59955
▁Jesús	-6.60133
▁El	-6.60204
ri	-6.61311
;	-6.62735
ẽ	-6.63965
▁re	-6.68491
▁sus	-6.69006
).	-6.71859
es	-6.72083
da	-6.72224
▁ja	-6.73619
ekue	-6.74027
ni	-6.77857
▁i	-6.78461
▁como	-6.78464
▁más	-6.78959
▁Ha	-6.7918
la	-6.8016
mos	-6.81224
me	-6.82126
ya	-6.83267
▁le	-6.83678
ve	-6.84093
▁Biblia	-6.84965
”	-6.86301
▁"	-6.8633
ã	-6.86499
ka	-6.87878
to	-6.88482
▁En	-6.89969
p	-6.90328
▁nos	-6.91533
▁‘	-6.93804
mo	-6.94485
▁e	-6.94846
sa	-6.95028
no	-6.95183
ki	-6.96054
ba	-6.9726
S	-6.97298
ca	-6.97547
▁avei	-6.97785
ku	-6.98185
se	-6.9841
▁in	-7.00393
lo	-7.00776
k	-7.00934
▁??	-7.01393
épa	-7.02552
▁O	-7.02859
ro	-7.03556
li	-7.03725
▁,	-7.04089
x	-7.04496
▁ne	-7.04518
▁me	-7.04915
erã	-7.07082
c	-7.10885
▁ka	-7.10932
▁ra	-7.1098
cha	-7.11259
▁mi	-7.11507
q	-7.11609
▁si	-7.12269
ña	-7.12336
ja	-7.12697
▁ikatu	-7.14513
▁qué	-7.15768
▁te	-7.16016
▁1	-7.16107
lla	-7.17009
wa	-7.1719
▁ni	-7.17307
▁Ñandejára	-7.17352
▁mana	-7.17548
▁chupe	-7.18732
▁E	-7.19023
gui	-7.1913
nte	-7.20774
h	-7.23294
Qué	-7.23386
A	-7.23793
▁Por	-7.23906
▁ya	-7.24057
man	-7.24713
!	-7.24968
w	-7.25076
▁porã	-7.25143
▁I	-7.25219
ndo	-7.26216
chi	-7.26592
le	-7.281
▁oñe	-7.28997
ne	-7.30396
ru	-7.30622
pas	-7.31784
chu	-7.35002
▁este	-7.35832
co	-7.37155
▁sobre	-7.37378
vo	-7.37711
▁ma	-7.37831
Mba	-7.38249
bo	-7.38316
que	-7.38626
rá	-7.38944
ó	-7.38973
▁ñande	-7.39165
▁ser	-7.39247
ga	-7.39367
▁heta	-7.40015
▁ñe	-7.40327
á	-7.4149
wan	-7.41528
▁che	-7.42089
▁tu	-7.42183
▁ningo	-7.42223
▁Mba	-7.43271
éichapa	-7.43432
ción	-7.4344
mente	-7.43806
▁él	-7.43823
si	-7.43953
▁vida	-7.44295
▁No	-7.44773
▁cuando	-7.45988
▁está	-7.46835
z	-7.47285
ron	-7.48574
▁18	-7.49624
▁Ko	-7.49901
de	-7.49987
▁2	-7.50187
▁Y	-7.50637
gua	-7.51034
▁pa	-7.51497
ramo	-7.51508
▁esta	-7.52618
▁son	-7.53374
an	-7.53568
di	-7.53958
▁ro	-7.54794
▁ojapo	-7.54886
▁tiempo	-7.54985
▁”	-7.55102
▁”.	-7.55192
▁oĩ	-7.55512
▁fue	-7.55916
▁años	-7.56682
dos	-7.56894
▁Si	-7.57299
▁hinaspa	-7.57835
ke	-7.57988
▁15	-7.58202
nta	-7.58269
▁térã	-7.58626
▁Los	-7.59343
▁oje	-7.59989
▁huk	-7.60012
▁puede	-7.60027
▁¡	-7.60539
▁’	-7.60571
▁Pablo	-7.60827
▁Pe	-7.61206
▁también	-7.61491
tu	-7.61544
▁todo	-7.6169
d	-7.61894
▁3	-7.62571
vi	-7.63446
so	-7.64126
kuna	-7.64256
ko	-7.64433
je	-7.64651
▁5	-7.64709
▁rupi	-7.65481
manta	-7.65536
▁b	-7.65809
▁día	-7.67483
”.	-7.6779
]	-7.6841
▁10	-7.68659
▁Ja	-7.68947
▁hacer	-7.692
▁ñane	-7.70096
▁upe	-7.70583
po	-7.7063
▁pero	-7.70909
en	-7.71759
▁Diospa	-7.72503
▁chupekuéra	-7.72855
▁ca	-7.73069
ch	-7.73255
j	-7.73319
▁oiko	-7.7336
▁mo	-7.73498
▁•	-7.73552
ce	-7.73757
▁upéva	-7.74499
▁De	-7.74767
▁era	-7.75153
▁personas	-7.76146
▁allin	-7.76251
▁todos	-7.76877
▁Se	-7.77243
bi	-7.77396
in	-7.77422
▁ta	-7.78541
▁les	-7.78817
py	-7.79267
▁12	-7.79345
he	-7.79794
+	-7.79825
▁kay	-7.79955
▁4	-7.80569
▁muy	-7.8062
▁hikuái	-7.80807
pu	-7.80867
"	-7.81021
▁Péro	-7.81106
▁[	-7.83006
go	-7.83162
▁na	-7.83483
E	-7.83733
I	-7.84538
▁Al	-7.84705
▁17	-7.84762
▁había	-7.85166
é	-7.85503
b	-7.85799
▁iki	-7.85946
▁11	-7.86007
mba	-7.86168
▁(1	-7.86349
▁14	-7.86743
Cómo	-7.87274
>	-7.8805
▁dijo	-7.88244
▁pi	-7.88314
▁sin	-7.88868
▁16	-7.88953
ci	-7.8945
▁7	-7.90723
▁tiene	-7.9074
▁Pero	-7.91666
kuéra	-7.93159
▁jepe	-7.93248
▁bien	-7.93332
▁nde	-7.93335
▁nispa	-7.94209
▁Juan	-7.94289
▁vez	-7.94401
▁hay	-7.94454
▁voi	-7.94547
▁Re	-7.94628
qui	-7.94717
▁ejemplo	-7.94769
▁6	-7.95384
▁sa	-7.95438
▁{	-7.95463
▁nuestra	-7.95507
g	-7.95613
▁Ma	-7.96022
▁Jehovápe	-7.96309
▁da	-7.96364
▁opa	-7.9664
▁”,	-7.98148
rse	-7.9825
▁entre	-7.98262
▁han	-7.98493
▁13	-7.98798
▁9	-7.98929
▁rehe	-7.99099
▁nisqaqa	-7.99925
▁cosas	-7.99987
érepa	-8.00176
▁San	-8.00364
▁watakuna	-8.00478
▁espíritu	-8.00781
í	-8.00807
▁19	-8.00954
▁ña	-8.01147
▁8	-8.0217
▁ñiqin	-8.02296
▁mundo	-8.02532
▁guive	-8.02713
xa	-8.03053
C	-8.03211
▁jave	-8.03597
name	-8.03623
das	-8.03788
▁}	-8.03792
ban	-8.04754
▁nuestro	-8.04859
▁rire	-8.05021
▁dos	-8.05029
▁Pa	-8.05396
yo	-8.055
ndi	-8.05704
▁t	-8.05886
sqa	-8.05905
▁Ta	-8.0593
),	-8.06108
▁porque	-8.06326
O	-8.06439
▁así	-8.06579
▁di	-8.06706
mu	-8.06734
▁fe	-8.06781
▁chay	-8.06984
les	-8.08083
ar	-8.08135
▁año	-8.08167
Por	-8.08332
ho	-8.08468
be	-8.08468
▁Umi	-8.08586
on	-8.08668
▁hina	-8.08692
wi	-8.08817
▁ehémplo	-8.08904
▁hague	-8.09138
▁Ca	-8.09362
▁ciudad	-8.10274
▁Ñe	-8.10595
▁yo	-8.10687
▁'	-8.11259
▁ima	-8.11262
▁ti	-8.11284
rã	-8.11573
hu	-8.11915
▁yn	-8.11987
▁S	-8.12035
▁mama	-8.1207
ría	-8.12313
▁otros	-8.12369
ré	-8.12578
▁ellos	-8.13508
▁Es	-8.1353
▁casa	-8.13933
▁Mi	-8.14317
we	-8.14339
▁ome	-8.14501
▁Jehova	-8.14647
▁eso	-8.14673
▁Pedro	-8.15148
▁dice	-8.15583
▁oĩva	-8.15714
▁g̃uarã	-8.15963
ete	-8.16057
▁po	-8.16598
▁ver	-8.16952
za	-8.17148
gi	-8.17373
▁cómo	-8.17477
▁nosotros	-8.17477
▁T	-8.17926
▁hombre	-8.18192
▁Su	-8.1831
▁parte	-8.18645
kunata	-8.18685
cu	-8.18831
▁Con	-8.19138
▁mismo	-8.19588
v	-8.19866
▁hasta	-8.20192
▁ndive	-8.20352
▁llaqtapi	-8.20782
▁nu	-8.20888
éva	-8.21027
▁Cuando	-8.21032
fi	-8.21445
/	-8.2148
▁hijos	-8.21649
apo	-8.21855
ñe	-8.21875
▁u	-8.22093
▁podemos	-8.22575
▁mucho	-8.23227
▁to	-8.2353
▁/	-8.23834
▁hína	-8.2386
▁familia	-8.239
▁katu	-8.23943
▁tanto	-8.23978
▁Sin	-8.23997
ekuéra	-8.24086
taha	-8.2479
▁ohechauka	-8.24936
▁amor	-8.2531
▁gran	-8.25749
▁cristianos	-8.25842
▁Ka	-8.25979
▁guare	-8.26114
su	-8.26504
▁hermanos	-8.26668
ía	-8.27059
nku	-8.27152
▁◄	-8.27331
▁ombo	-8.274
ä	-8.27489
íva	-8.275
▁lugar	-8.27525
brand	-8.27789
lli	-8.27857
▁p	-8.28276
el	-8.28291
hápe	-8.28524
▁David	-8.28647
▁tierra	-8.2866
ciones	-8.28917
▁manam	-8.29114
▁►	-8.29124
▁uno	-8.29168
jo	-8.29172
▁mu	-8.29282
▁después	-8.29493
▁ku	-8.29548
zo	-8.296
▁Te	-8.29924
▁estaba	-8.30173
▁simi	-8.30203
▁Satanás	-8.30567
iva	-8.30701
▁cuenta	-8.30815
eve	-8.31332
▁están	-8.31554
▁ba	-8.31696
ỹ	-8.32139
nos	-8.32866
▁Mo	-8.32887
▁co	-8.33081
▁DE	-8.33125
▁pegua	-8.33209
f	-8.33494
án	-8.33596
taq	-8.33642
▁je	-8.33927
ll	-8.34018
▁nombre	-8.34026
▁uka	-8.34064
▁karqa	-8.34132
▁cha	-8.34211
▁ayuda	-8.34326
▁Me	-8.34328
▁py	-8.34345
▁solo	-8.35245
▁yvy	-8.35297
ág̃a	-8.35309
▁ndo	-8.3538
nu	-8.35544
▁Commons	-8.3558
B	-8.35631
▁watapi	-8.3568
▁ani	-8.35738
▁hecho	-8.35788
lu	-8.35792
▁P	-8.35961
▁contra	-8.35967
▁C	-8.36212
ng	-8.36219
▁ex	-8.36396
er	-8.36892
▁U	-8.36913
▁jey	-8.36926
sta	-8.37507
nchik	-8.37599
▁decir	-8.37709
▁Upévare	-8.37748
rõ	-8.3793
▁áño	-8.38215
▁Pi	-8.38519
▁20	-8.3863
▁vai	-8.38815
▁bi	-8.39285
P	-8.39345
▁<	-8.39381
▁siempre	-8.39771
▁k	-8.39811
▁gente	-8.39981
▁ára	-8.40002
mbo	-8.40493
2	-8.40587
▁Para	-8.40619
al	-8.40966
che	-8.41043
▁pueden	-8.4125
▁(2	-8.41293
▁hi	-8.41297
spa	-8.4159
ye	-8.41705
ite	-8.41757
▁ri	-8.41759
▁forma	-8.41953
▁Cristo	-8.42117
kuaa	-8.42349
▁tan	-8.4247
R	-8.42532
▁péro	-8.43194
▁congregación	-8.433
▁ermáno	-8.43431
rqa	-8.44006
cho	-8.44279
▁be	-8.44315
▁ñandéve	-8.44692
rán	-8.44729
▁tla	-8.4476
T	-8.44787
▁chi	-8.45054
dor	-8.45335
▁embargo	-8.45535
▁hese	-8.46005
▁manera	-8.46027
▁muchos	-8.46764
ria	-8.47118
▁hace	-8.47278
▁ambue	-8.47793
▁CANCIONES	-8.47805
tla	-8.47874
tsi	-8.48003
tam	-8.48266
▁cada	-8.48454
ñ	-8.48524
▁palabras	-8.4855
▁pues	-8.48857
▁debemos	-8.48909
nda	-8.49242
▁tener	-8.49268
▁rupive	-8.49476
xon	-8.49514
▁donde	-8.49546
▁antes	-8.49581
▁Na	-8.5027
▁He	-8.50369
▁pro	-8.50815
▁Sa	-8.5082
hi	-8.50857
▁Las	-8.51038
nti	-8.51236
▁todas	-8.51244
▁rehegua	-8.51262
▁[...]	-8.51262
▁m	-8.51349
gue	-8.51442
▁Reino	-8.51449
▁pueblo	-8.51476
▁Ro	-8.51546
▁Ra	-8.51646
ana	-8.51658
yu	-8.51673
▁Ba	-8.51755
10	-8.51795
▁desde	-8.5189
éi	-8.51926
▁tukuy	-8.52136
U	-8.52144
...	-8.52184
▁nuestros	-8.52346
▁kaq	-8.52437
▁mejor	-8.52504
▁yanapa	-8.52585
yta	-8.52716
napaq	-8.52788
▁Un	-8.52892
▁qui	-8.53041
▁suyu	-8.53281
▁ki	-8.53616
nankupaq	-8.53647
▁José	-8.5376
▁corazón	-8.5384
ú	-8.5388
▁—	-8.53947
▁oipytyvõ	-8.54317
xi	-8.54381
Y	-8.5441
▁upéicha	-8.54412
▁sido	-8.54521
nin	-8.54541
▁Firefox	-8.55063
▁ley	-8.55397
▁Diosta	-8.55996
▁toda	-8.56072
▁verdad	-8.5632
▁algunos	-8.56656
▁apóstol	-8.57054
▁oho	-8.57144
▁tienen	-8.57277
hua	-8.57492
ỹva	-8.57737
▁Lo	-8.57761
ãi	-8.57992
”,	-8.5806
▁omo	-8.58212
▁hizo	-8.58288
▁simipi	-8.5832
ju	-8.58723
▁tenía	-8.59092
hui	-8.59199
▁Ya	-8.5926
▁jan	-8.59604
▁Cor	-8.59702
▁omombe	-8.59817
M	-8.59995
▁días	-8.60121
pan	-8.6029
▁nirqa	-8.60725
sión	-8.60737
▁libro	-8.60745
nanpaq	-8.60899
▁oikuaa	-8.61
▁usted	-8.61073
nqa	-8.61135
▁debe	-8.61162
▁jajapo	-8.61279
▁Peteĩ	-8.6164
ño	-8.61869
▁página	-8.6187
▁haguére	-8.61996
▁killapi	-8.62062
▁trabajo	-8.62151
rnos	-8.62299
▁Ni	-8.62303
▁ati	-8.62452
▁mä	-8.62588
▁Este	-8.62692
ró	-8.63746
▁otro	-8.63783
▁sí	-8.63804
shi	-8.64013
vy	-8.64064
▁pre	-8.64329
ẽva	-8.6433
▁sino	-8.64335
▁Chay	-8.64364
▁Israel	-8.64475
▁muerte	-8.64786
5	-8.64963
."	-8.64976
▁esto	-8.6513
▁hag̃uáicha	-8.65195
▁hénte	-8.65283
N	-8.6538
▁durante	-8.65915
▁hombres	-8.66059
▁upévare	-8.66185
ge	-8.66605
ran	-8.66891
mp	-8.67069
▁fin	-8.67115
▁ru	-8.67434
du	-8.67717
ty	-8.67799
20	-8.67951
los	-8.68036
▁%	-8.68097
as	-8.68186
gu	-8.68227
▁wa	-8.68255
tá	-8.68366
ntes	-8.6838
▁ho	-8.68506
G	-8.68518
véva	-8.68533
▁;	-8.68608
rio	-8.68845
▁imayna	-8.68947
las	-8.69182
▁K	-8.69195
▁ella	-8.69206
mpa	-8.69262
nka	-8.69638
▁Ju	-8.69767
llo	-8.69801
kastilla	-8.69822
▁ore	-8.6984
▁Jesucristo	-8.69934
▁ju	-8.70086
icha	-8.70146
▁hu	-8.70154
▁estas	-8.70179
▁kuri	-8.70276
▁Li	-8.70291
sti	-8.70403
00	-8.70623
▁M	-8.70744
▁ndaha	-8.70835
qu	-8.71237
▁Ku	-8.71261
▁ese	-8.71499
▁ahora	-8.71625
▁padre	-8.71695
▁otras	-8.71696
res	-8.71715
7	-8.71808
▁estos	-8.71861
Sal	-8.71871
tsa	-8.72134
▁Diosqa	-8.72175
tl	-8.72326
▁www	-8.72807
▁pasa	-8.72852
J	-8.73195
▁importante	-8.7323
paq	-8.73722
▁ári	-8.73722
▁país	-8.7386
▁Tierra	-8.74052
▁tres	-8.74074
▁padres	-8.74152
sh	-8.74165
D	-8.74788
ble	-8.74807
▁ge	-8.74881
̱	-8.74945
▁algo	-8.74949
▁vi	-8.74986
▁muna	-8.7507
▁runakuna	-8.75124
▁palabra	-8.7525
▁Ñandejárape	-8.75383
▁G	-8.75701
▁hawa	-8.75717
fe	-8.75851
▁hijo	-8.75931
▁persona	-8.7601
▁otra	-8.76294
▁hermano	-8.76408
▁bo	-8.76609
emos	-8.76651
▁kasqanta	-8.76779
▁ama	-8.76885
fa	-8.77066
▁cu	-8.77165
idad	-8.77203
nde	-8.77633
▁muchas	-8.77692
L	-8.77832
ten	-8.77945
▁(19	-8.77986
▁marandu	-8.78004
▁In	-8.78062
▁rey	-8.78128
▁quien	-8.78172
▁rura	-8.78362
▁ruwa	-8.78516
▁madre	-8.78771
▁sea	-8.7879
▁ga	-8.78802
▁Padre	-8.78821
▁dio	-8.78877
▁Kay	-8.78919
▁omano	-8.79403
tó	-8.79599
kin	-8.79702
Mat	-8.79757
No	-8.79814
bu	-8.79846
▁Como	-8.80039
▁ch	-8.80114
nt	-8.80243
ado	-8.80421
▁estar	-8.80421
▁Je	-8.80534
▁demás	-8.81378
▁ou	-8.81442
▁F	-8.81575
▁Vi	-8.81728
▁Po	-8.81824
▁Le	-8.82063
▁qo	-8.82107
os	-8.82181
▁Upe	-8.82348
aka	-8.82556
▁hoy	-8.82565
era	-8.82565
6	-8.82895
tra	-8.8296
nki	-8.82961
▁nuevo	-8.83032
tos	-8.83052
▁mis	-8.83331
▁B	-8.83369
▁icha	-8.83531
▁N	-8.83551
nd	-8.83558
▁tal	-8.83587
▁web	-8.83788
▁caso	-8.83891
ste	-8.83951
▁quienes	-8.83967
nto	-8.84076
lí	-8.84212
▁testigos	-8.84403
nga	-8.84535
▁artículo	-8.8455
▁pu	-8.84582
▁Hu	-8.84776
rí	-8.85006
▁unos	-8.8528
▁información	-8.85522
▁mal	-8.85714
▁ary	-8.85777
V	-8.85939
▁Una	-8.8597
▁Wa	-8.86137
nan	-8.86141
▁ayudar	-8.86238
▁Así	-8.86435
xihuitl	-8.86775
▁Además	-8.86849
▁:	-8.86866
ápe	-8.86952
ón	-8.87014
▁omba	-8.87321
▁aka	-8.87366
▁oñepyrũ	-8.87459
eterei	-8.87544
▁Pu	-8.87633
▁Esta	-8.8768
kunaqa	-8.87695
▁veces	-8.87804
▁runa	-8.87816
▁Di	-8.87908
▁También	-8.87978
▁jato	-8.88236
▁ve	-8.88455
ita	-8.8855
▁Tu	-8.88678
▁so	-8.88899
▁tenemos	-8.88912
▁será	-8.88987
▁siervos	-8.89048
▁Co	-8.89127
ua	-8.89193
▁mujer	-8.89243
chá	-8.89274
ay	-8.89506
▁pachakwata	-8.89739
ji	-8.89748
pim	-8.89899
▁qawa	-8.89902
▁niños	-8.89903
▁jo	-8.90171
▁kuimba	-8.90176
▁guasu	-8.90246
sun	-8.9029
▁Cha	-8.90516
▁modo	-8.90519
▁30	-8.90605
▁seguir	-8.90962
▁iñe	-8.91041
▁discípulos	-8.91046
▁fueron	-8.91361
té	-8.91361
K	-8.9146
▁posible	-8.91472
▁Paraguay	-8.91548
▁Avei	-8.91768
▁kristiáno	-8.92065
▁21	-8.92326
qué	-8.92344
▁To	-8.92428
▁María	-8.9259
▁Che	-8.92593
▁peve	-8.92616
▁suyupi	-8.92621
▁ce	-8.92666
▁Ichaqa	-8.92678
▁Upéicha	-8.92734
▁3:	-8.92756
▁marka	-8.92764
</	-8.92846
▁“¿	-8.92909
us	-8.93009
▁Palabra	-8.93139
▁dar	-8.93271
▁qu	-8.93371
Pe	-8.93518
▁Mu	-8.93546
ká	-8.93843
▁Q	-8.93948
▁buenas	-8.93955
1	-8.94072
ación	-8.94114
tas	-8.94153
▁piko	-8.94211
▁jisk	-8.94219
▁mboyve	-8.94222
▁tetã	-8.94258
▁oñembo	-8.94277
▁nin	-8.94318
La	-8.94371
kue	-8.94503
ĩ	-8.94558
▁Moisés	-8.94576
▁ipy	-8.94589
▁primera	-8.94827
▁R	-8.95043
▁nada	-8.95087
▁poco	-8.95103
rre	-8.95273
st	-8.95362
▁1:	-8.95368
tapas	-8.95388
taqmi	-8.95393
▁ohecha	-8.95465
má	-8.95723
▁mí	-8.95754
yku	-8.95812
▁esposa	-8.95864
▁Él	-8.95896
bra	-8.95993
Juan	-8.96402
▁obra	-8.96645
yá	-8.96765
▁Mar	-8.97041
apy	-8.97051
▁n	-8.9726
▁santo	-8.9727
reko	-8.97296
eha	-8.97298
aite	-8.97322
▁agua	-8.97406
háicha	-8.97431
▁significa	-8.97719
▁per	-8.97799
tar	-8.9782
mpi	-8.97821
gra	-8.97834
▁hablar	-8.97881
ul	-8.97887
▁poder	-8.9796
ai	-8.98055
pyre	-8.98138
lle	-8.98275
▁hérava	-8.98408
▁piensa	-8.98513
cia	-8.98558
▁warmi	-8.98728
ara	-8.98827
kuq	-8.98942
▁amo	-8.98957
▁Ru	-8.98975
tzin	-8.9927
▁medio	-8.99395
▁Ne	-8.99693
▁vivir	-8.99768
​	-8.99968
▁allinta	-9.00134
▁cielo	-9.00208
▁multi	-9.00234
▁gobierno	-9.00236
▁L	-9.00652
▁servicio	-9.00706
9	-9.00791
TA	-9.00891
▁ustedes	-9.01011
▁rima	-9.01134
▁enseña	-9.01225
▁tembiapo	-9.01302
3	-9.01316
rra	-9.01377
rqaku	-9.0153
▁primero	-9.01542
▁ke	-9.01603
▁Chi	-9.01615
▁chéve	-9.0164
▁primer	-9.0168
▁Nacional	-9.017
▁otaq	-9.01718
mby	-9.01793
▁$	-9.01838
▁Upéicharõ	-9.01847
▁kawsa	-9.01961
yuqmi	-9.02043
▁entonces	-9.02046
▁Piruw	-9.02053
com	-9.02105
con	-9.02126
F	-9.02184
▁ir	-9.02249
ise	-9.02275
▁nuestras	-9.02347
8	-9.02437
▁mar	-9.0252
▁Ña	-9.02522
tro	-9.02745
▁acerca	-9.0279
▁nunca	-9.03147
De	-9.03269
▁datos	-9.03324
▁haber	-9.0345
▁Heta	-9.03508
▁ichaqa	-9.03794
ncia	-9.03978
por	-9.04103
▁ojejapo	-9.0413
ry	-9.04365
▁mokõi	-9.04508
▁momento	-9.04629
▁seguridad	-9.04637
nia	-9.04725
▁mensaje	-9.0481
▁oikóva	-9.04815
▁Bo	-9.0486
mí	-9.04921
▁mbo	-9.04927
▁Upéva	-9.05027
▁pregunta	-9.05063
▁Péicha	-9.05102
cua	-9.05128
▁ótro	-9.05132
▁Salmo	-9.05262
sto	-9.05282
▁alguien	-9.05594
kana	-9.05597
nak	-9.05612
▁orekóva	-9.05798
▁wi	-9.06051
El	-9.0612
uh	-9.06415
▁ika	-9.06906
▁yacha	-9.06997
▁osẽ	-9.0705
úva	-9.07113
▁ijetu	-9.07117
▁Internet	-9.07238
▁tiémpo	-9.07274
▁espiritual	-9.073
nanchik	-9.076
▁NM	-9.07617
▁wata	-9.07629
%	-9.07784
dores	-9.07965
rro	-9.08167
0	-9.08273
▁luego	-9.08578
▁Chaymi	-9.086
▁nisqa	-9.08605
▁li	-9.08614
▁péicha	-9.08695
5).	-9.08764
ver	-9.08785
Imaynatam	-9.09404
4	-9.09638
▁deben	-9.097
llu	-9.09709
▁sitio	-9.10098
taqa	-9.10232
▁red	-9.10262
chwan	-9.10443
▁tapicha	-9.10537
▁Oĩ	-9.1055
lá	-9.10742
▁Diosmanta	-9.10842
lia	-9.10964
men	-9.10966
▁Santa	-9.1113
▁Lu	-9.11176
Ima	-9.1129
▁oreko	-9.11293
▁pan	-9.11358
▁tekotevẽ	-9.11423
▁achka	-9.11863
▁predica	-9.11907
▁esa	-9.12025
▁Ikatu	-9.12166
erãha	-9.122
▁katuete	-9.12316
remos	-9.12347
pó	-9.1244
iterei	-9.12686
▁ñanduti	-9.12729
kama	-9.12804
span	-9.12844
▁LA	-9.12944
ánte	-9.12988
ére	-9.13018
▁22	-9.13153
▁Jo	-9.1316
▁humanos	-9.13258
▁ñanepytyvõ	-9.13343
ná	-9.13397
ãva	-9.1341
tin	-9.13417
▁Hi	-9.13514
▁2:	-9.13653
des	-9.13661
sqanmanta	-9.13819
▁valor	-9.1385
gar	-9.13911
▁Mateo	-9.14086
▁iñiqmasinchik	-9.14177
midya	-9.14194
▁kapuyninkuna	-9.14289
▁kuti	-9.14481
▁aty	-9.14551
▁chayna	-9.14615
▁upépe	-9.14639
sqanta	-9.14752
▁aswan	-9.14915
Mateo	-9.14969
▁Aunque	-9.15098
ncha	-9.15148
▁paz	-9.1518
▁24	-9.15343
yqa	-9.15362
kena	-9.15507
▁siguiente	-9.15615
▁kñ	-9.15617
▁haguéicha	-9.1564
▁nuevas	-9.15683
cio	-9.15762
▁mayor	-9.1608
mbi	-9.1626
hína	-9.16316
▁Estados	-9.1639
30	-9.16489
▁historia	-9.16551
vape	-9.16551
pre	-9.16632
ẽme	-9.16718
▁sal	-9.16728
ũ	-9.16816
▁tomar	-9.16829
▁oñeha	-9.16889
▁Estado	-9.16953
▁habían	-9.17004
▁escribió	-9.17173
▁ohasa	-9.17207
".	-9.17227
▁xa	-9.17294
▁eran	-9.17407
▁duda	-9.17537
▁Jesuspa	-9.17631
kunamanta	-9.17643
yi	-9.17716
via	-9.17853
miento	-9.17886
▁Jezreel	-9.18142
▁ukat	-9.18152
▁rei	-9.18253
▁pacha	-9.18435
▁igual	-9.1862
dio	-9.18704
▁ancha	-9.18776
▁sentido	-9.1879
tri	-9.1892
lé	-9.18981
▁misma	-9.19054
▁tlen	-9.19198
sia	-9.19223
kuri	-9.19244
▁Qué	-9.19719
um	-9.19727
En	-9.19755
▁ante	-9.19759
ton	-9.19763
▁problemas	-9.19789
ida	-9.19792
▁Yo	-9.19829
▁lengua	-9.19919
▁yachachi	-9.20008
▁habla	-9.20012
ter	-9.20245
▁́	-9.20263
porã	-9.20291
▁Ho	-9.20513
anga	-9.20552
mana	-9.20687
▁iporã	-9.20714
▁persóna	-9.20727
▁sutiyuq	-9.20765
▁ojapóva	-9.20788
ary	-9.20909
▁Timoteo	-9.21005
▁omomba	-9.21103
▁astawan	-9.21114
cer	-9.21231
kunapi	-9.21259
▁sistema	-9.21414
▁hinam	-9.21566
▁kuya	-9.21578
Ha	-9.21624
▁estado	-9.21647
firefox	-9.21858
hecha	-9.21937
un	-9.22029
▁causa	-9.22102
▁Da	-9.22173
▁X	-9.22225
kan	-9.22353
▁jaikuaa	-9.22581
▁Be	-9.22665
▁favor	-9.22691
▁ancianos	-9.22696
áva	-9.22732
▁25	-9.22839
ven	-9.22877
▁Pro	-9.22954
có	-9.22968
can	-9.23029
▁zona	-9.23121
tica	-9.23188
tia	-9.23406
arõ	-9.23437
▁Ar	-9.23608
kunam	-9.23624
õ	-9.23626
ax	-9.23679
OS	-9.24078
cción	-9.24227
kua	-9.2423
nas	-9.24293
▁Abrahán	-9.24338
▁buena	-9.24375
“	-9.24397
▁aja	-9.24445
▁preguntas	-9.24695
nes	-9.24832
▁menos	-9.24834
▁hatun	-9.25037
▁D	-9.2507
lea	-9.25123
ime	-9.25153
▁tarde	-9.25156
40	-9.25227
▁Adán	-9.25256
▁incluso	-9.25291
▁Ri	-9.25391
▁Ahora	-9.25474
ero	-9.25528
▁salud	-9.25546
▁ye	-9.25692
▁justicia	-9.25699
▁aquí	-9.25704
is	-9.25727
▁cualquier	-9.25769
▁pyahu	-9.25872
▁llaqta	-9.25917
Imatam	-9.2598
▁4:	-9.25992
▁ndéve	-9.26021
▁servir	-9.26048
it	-9.26346
▁ndaikatúi	-9.26396
▁Señor	-9.265
ck	-9.26539
RA	-9.26596
▁allí	-9.26627
▁estudio	-9.26637
▁predicar	-9.26672
ngo	-9.26708
guáva	-9.26783
iri	-9.26923
▁pachapi	-9.27021
▁cual	-9.27049
sqan	-9.27104
waq	-9.27158
▁Lima	-9.27206
▁fuera	-9.27219
▁*	-9.27291
▁gueteri	-9.27351
xo	-9.27445
▁So	-9.27449
▁camino	-9.27466
▁saber	-9.27877
cal	-9.27917
▁īpan	-9.27919
ada	-9.27959
▁hemos	-9.27971
▁23	-9.28062
aqa	-9.28094
▁Upéi	-9.28104
▁wakin	-9.28173
▁Ga	-9.28285
kunawan	-9.2829
▁apytépe	-9.28443
▁tuicha	-9.28582
▁Corintios	-9.28607
▁Ti	-9.28664
▁mujeres	-9.28672
▁estaban	-9.28683
iha	-9.28694
▁can	-9.28794
ir	-9.28816
▁Entonces	-9.28883
▁Artículo	-9.28901
▁opensa	-9.28924
▁5:	-9.28976
▁sapa	-9.29059
▁siglo	-9.29121
gre	-9.29222
▁cuerpo	-9.29306
pytyvõ	-9.29465
▁situación	-9.29694
▁ven	-9.29719
lar	-9.29723
H	-9.29738
▁millones	-9.2978
▁conocer	-9.30042
▁mayu	-9.30059
▁llama	-9.3006
▁san	-9.30093
▁Ki	-9.30096
▁desea	-9.3015
org	-9.30245
▁Escrituras	-9.30361
▁q	-9.30397
▁jóvenes	-9.3042
pá	-9.30431
▁pensar	-9.30481
▁imp	-9.30505
▁cristiano	-9.30737
▁asy	-9.30864
▁cerca	-9.3089
▁upéi	-9.30937
▁chaynataq	-9.30971
iko	-9.31092
tan	-9.31105
▁Ñande	-9.31342
▁efecto	-9.31433
▁non	-9.3145
▁pecado	-9.31493
▁pruwinsyapi	-9.31597
▁grupo	-9.31609
▁karqan	-9.31656
elee	-9.31689
▁mientras	-9.31716
▁ukax	-9.31787
▁gotyo	-9.31816
▁tus	-9.3187
▁xihuitl	-9.31877
npi	-9.31885
▁quiere	-9.31941
▁Jerusalén	-9.3196
▁provincia	-9.31981
▁bajo	-9.32047
▁V	-9.32126
ts	-9.32138
RE	-9.32178
▁Mācuīlpōhual	-9.32322
▁llaqtam	-9.32549
▁múndo	-9.32647
▁hetaiterei	-9.32665
tí	-9.32668
▁jahecha	-9.32743
▁cuatro	-9.32767
stra	-9.32814
ían	-9.32852
▁Unidos	-9.32896
yuq	-9.32968
▁pasado	-9.33056
▁Cu	-9.33071
▁chugui	-9.33101
▁Tim	-9.33107
eguasu	-9.33134
▁ji	-9.33145
▁Santiago	-9.33281
▁organización	-9.33296
▁ministerio	-9.33297
gá	-9.33403
rin	-9.33455
kuy	-9.33546
▁esperanza	-9.33558
▁ojo	-9.33628
▁guerra	-9.33702
chkan	-9.33827
▁com	-9.33843
▁tra	-9.33868
▁seres	-9.33939
▁Hijo	-9.33942
▁sólo	-9.34176
▁km	-9.34209
▁israelitas	-9.34307
tsie	-9.34351
ente	-9.34676
▁mil	-9.34709
eva	-9.34739
▁tuvo	-9.34791
▁Chayna	-9.34889
▁Después	-9.35031
hára	-9.35042
nakax	-9.35124
épe	-9.35185
000	-9.35196
▁itan	-9.35263
▁Car	-9.35516
ê	-9.35571
▁6:	-9.35651
▁servi	-9.35781
▁aunque	-9.35802
▁oguereko	-9.35988
▁número	-9.36023
▁ape	-9.36129
ẽrendu	-9.36164
▁yachay	-9.36253
▁tú	-9.36429
▁qillqa	-9.36449
▁sonqo	-9.36536
▁Tla	-9.36611
ros	-9.3668
▁Esto	-9.3675
▁pende	-9.36768
▁fa	-9.36768
▁Oje	-9.36791
▁punto	-9.36902
gov	-9.36938
▁oñemo	-9.36983
▁runaqa	-9.37006
éicha	-9.37103
▁explica	-9.37126
th	-9.37157
▁ikatúva	-9.37174
_	-9.37194
ndu	-9.37287
▁c	-9.37405
▁29	-9.37433
mé	-9.37447
▁sumaq	-9.37499
▁trata	-9.37551
ido	-9.37631
▁río	-9.37639
▁buen	-9.37649
▁hembiapo	-9.37669
▁noche	-9.37756
▁kasuku	-9.37824
▁reino	-9.3794
▁algunas	-9.37977
▁tenda	-9.38034
▁nueva	-9.38067
▁min	-9.38067
▁toma	-9.38092
▁idioma	-9.38341
▁og̃uahẽ	-9.38349
▁Job	-9.38364
▁yvypóra	-9.384
Che	-9.3852
▁shinan	-9.38535
▁cho	-9.38555
▁cierto	-9.38625
Q	-9.38628
▁futuro	-9.38703
nman	-9.38767
15	-9.38789
▁tariku	-9.38877
▁derecho	-9.38926
moĩ	-9.38928
▁jaiko	-9.38945
▁inter	-9.38956
▁grande	-9.38977
cas	-9.39045
▁akin	-9.39087
nza	-9.39271
wanmi	-9.39305
▁mara	-9.3936
▁tiempopi	-9.39373
▁necesita	-9.39466
▁podría	-9.39515
▁acuerdo	-9.39621
dad	-9.39941
Mi	-9.40024
▁aprender	-9.40046
11	-9.40124
naka	-9.40243
▁heko	-9.40254
gó	-9.40336
séva	-9.40373
PE	-9.40454
yan	-9.4049
▁dios	-9.40519
▁relación	-9.40607
▁lívro	-9.40814
rd	-9.40915
▁oñeme	-9.41027
ec	-9.41123
▁Saywitu	-9.41229
▁oservi	-9.41259
ima	-9.41285
▁llegar	-9.4129
▁opyta	-9.4129
▁xi	-9.4132
▁umíva	-9.41385
pegua	-9.41497
▁fieles	-9.41554
et	-9.41592
▁amistad	-9.41746
rika	-9.41757
▁kallpanchaku	-9.41785
▁tiémpope	-9.41822
ismo	-9.41867
▁falta	-9.42025
▁tayta	-9.42072
▁á	-9.42115
rte	-9.4231
50	-9.42409
▁wali	-9.42435
▁principio	-9.42457
▁kachkan	-9.42578
▁28	-9.42613
",	-9.42676
ik	-9.42692
nmi	-9.4272
▁hacia	-9.42997
ãnga	-9.43052
8).	-9.43202
▁Chu	-9.43287
▁hetave	-9.43346
▁reuniones	-9.43436
▁tipo	-9.43466
▁ea	-9.43468
tima	-9.43489
▁Eva	-9.43573
▁h	-9.43612
Rom	-9.43687
-19	-9.43753
▁estamos	-9.43778
sqankuta	-9.43828
▁oipota	-9.43921
ribi	-9.43997
ikuaa	-9.44034
▁punchaw	-9.44094
▁miembros	-9.44107
▁nda	-9.44137
▁Roma	-9.44174
ras	-9.44189
sen	-9.44348
▁amigos	-9.44356
▁según	-9.44357
▁esposo	-9.44357
▁ungidos	-9.44417
ā	-9.4453
▁2011	-9.4465
▁Que	-9.44749
▁Isaías	-9.44798
▁ita	-9.44841
chik	-9.44973
sé	-9.45037
tza	-9.45061
▁reko	-9.4525
▁kamachi	-9.45302
▁(*	-9.45604
▁&	-9.4582
▁Daniel	-9.45867
▁tee	-9.45913
▁ansiáno	-9.45933
▁paqarisqa	-9.4595
▁runakunata	-9.45963
▁don	-9.45992
▁Qu	-9.46032
▁matrimonio	-9.46063
kunapa	-9.46173
▁ovy	-9.46177
sion	-9.46259
véta	-9.46382
70	-9.46386
ur	-9.46465
cen	-9.46474
▁31	-9.46488
pé	-9.46498
▁26	-9.46542
▁diciembre	-9.46567
▁oporo	-9.46582
▁voluntad	-9.46611
▁ikatuha	-9.46647
▁oike	-9.46682
▁ojerovia	-9.46691
9).	-9.46723
▁Comunes	-9.46783
siones	-9.46811
▁teko	-9.46887
▁cabeza	-9.46918
▁vista	-9.47002
▁wañu	-9.47006
▁J	-9.47071
▁razón	-9.47093
▁uso	-9.4716
▁Bíbliape	-9.47161
▁bíblicos	-9.47162
▁ohechakuaa	-9.47206
▁entiende	-9.47211
▁Pór	-9.4725
▁profeta	-9.47382
kó	-9.47464
▁moa	-9.47483
ata	-9.47514
*	-9.47516
▁templo	-9.47647
▁sánto	-9.47672
▁escuela	-9.47736
▁chaymi	-9.47778
▁jepi	-9.47783
▁propósito	-9.47847
ngún	-9.47903
▁opredika	-9.48044
▁meme	-9.48063
▁tsa	-9.48065
tal	-9.4808
ando	-9.48133
▁dinero	-9.48172
▁llevar	-9.48382
bre	-9.48418
▁táva	-9.48424
▁yvágape	-9.48432
21	-9.48513
▁Distrito	-9.48538
▁Rey	-9.48588
▁%1$	-9.48652
raq	-9.48669
▁oheja	-9.48714
▁Jesusqa	-9.48777
▁realmente	-9.4886
1).	-9.48872
▁dejar	-9.48909
▁ñañe	-9.4899
▁joven	-9.49006
sos	-9.49073
ces	-9.4914
▁33	-9.49174
▁2.	-9.49309
▁ojos	-9.49334
▁kasqanmanta	-9.4942
▁omoĩ	-9.49497
▁chaski	-9.49549
▁conocimiento	-9.49572
▁algún	-9.49689
▁uru	-9.49854
▁pórke	-9.49875
▁Luis	-9.5003
fo	-9.50068
▁pya	-9.50106
▁sapy	-9.50217
▁H	-9.50353
▁Uma	-9.50383
▁Jesus	-9.50397
tes	-9.50581
tado	-9.50631
▁dado	-9.50651
É	-9.50665
13	-9.50682
▁jawen	-9.50695
▁entender	-9.50711
sco	-9.50816
▁estudia	-9.50824
nanku	-9.50911
6).	-9.50921
u̱	-9.50961
Ñandejára	-9.50968
▁carta	-9.50989
25	-9.50995
▁recibir	-9.51052
▁Cómo	-9.51158
▁dis	-9.51279
▁usa	-9.51304
Ma	-9.51334
▁Oñe	-9.51447
tor	-9.51503
ani	-9.51676
mb	-9.51714
▁mano	-9.51731
12	-9.51733
▁fiel	-9.51795
▁bueno	-9.51824
iti	-9.5183
▁we	-9.51848
▁Wi	-9.5186
▁may	-9.51936
RI	-9.52006
▁mayoría	-9.52028
mó	-9.52173
tz	-9.52222
uka	-9.52241
▁Noé	-9.52267
tina	-9.52538
▁niño	-9.52579
▁oha	-9.52615
17	-9.52633
▁leer	-9.52675
▁Go	-9.52743
▁kongregasión	-9.52794
▁Bi	-9.52872
▁navegador	-9.52878
▁Qui	-9.5288
Salmo	-9.52967
▁Lucas	-9.52973
▁aún	-9.53061
▁Ley	-9.53261
▁hanaq	-9.53278
▁Jehováre	-9.53327
................	-9.53397
▁dicho	-9.53422
▁mitã	-9.53595
son	-9.53673
▁tantea	-9.53707
rt	-9.53736
▁muestra	-9.53758
▁riki	-9.53866
piqa	-9.53881
▁jach	-9.53881
aya	-9.5396
ypi	-9.53996
ui	-9.54042
san	-9.54079
▁cor	-9.54128
▁janiw	-9.54156
▁do	-9.54223
▁haguã	-9.54223
▁murió	-9.5428
▁27	-9.54386
▁kan	-9.54455
fu	-9.54458
▁necesario	-9.54482
▁través	-9.5453
▁final	-9.54534
ky	-9.54552
▁hacen	-9.54596
mar	-9.5463
▁nadie	-9.54674
▁República	-9.54744
áta	-9.54827
káda	-9.55061
llan	-9.55081
▁cinco	-9.55154
ín	-9.55229
tapa	-9.55263
▁cuanto	-9.55303
▁sol	-9.5542
▁imba	-9.55424
cion	-9.55498
▁Huk	-9.55508
rlo	-9.55513
▁consejo	-9.55548
7).	-9.55567
ñam	-9.55592
pro	-9.55601
Imanasqa	-9.55617
▁réra	-9.55644
▁vy	-9.55653
baon	-9.55678
katu	-9.55794
▁uyari	-9.55809
▁chura	-9.55837
tero	-9.55945
▁reco	-9.55985
ō	-9.56208
▁principios	-9.56285
▁porãve	-9.5632
min	-9.56506
sqanchik	-9.56527
ska	-9.56577
19	-9.5661
▁prueba	-9.56641
tura	-9.56763
ní	-9.56804
▁mediante	-9.56891
▁haya	-9.56914
▁An	-9.5692
\	-9.57072
▁código	-9.5708
▁diferentes	-9.57099
▁edad	-9.57206
▁somos	-9.57257
▁pene	-9.57275
▁hermana	-9.57349
▁ayudará	-9.57361
ati	-9.57361
▁clase	-9.5737
▁Ci	-9.57382
▁sabe	-9.57414
▁oiporu	-9.57425
▁texto	-9.57428
dó	-9.57501
encia	-9.57687
tian	-9.57763
▁Ama	-9.57817
▁mañaku	-9.57831
rú	-9.5788
▁ndaja	-9.57912
◄	-9.57968
▁entéro	-9.58037
▁llamado	-9.58078
▁lee	-9.58113
▁general	-9.58126
►	-9.58191
car	-9.58207
▁Do	-9.58244
▁mia	-9.58344
▁rembiapo	-9.58474
pxi	-9.58504
zi	-9.58507
▁mira	-9.58549
▁aru	-9.58571
iendo	-9.58641
etéva	-9.58645
▁Brasil	-9.5874
▁Mbo	-9.58931
▁confianza	-9.58955
▁indica	-9.58957
▁ñanderehe	-9.58974
▁ermána	-9.59048
ẽñemi	-9.591
▁xe	-9.59119
▁anciano	-9.59148
▁atención	-9.59149
▁kongregasiónpe	-9.5916
▁ojapova	-9.59167
ýra	-9.5921
ñataqmi	-9.59292
▁kuña	-9.59305
Es	-9.59349
ü	-9.59448
▁seguro	-9.59517
PA	-9.59584
▁podía	-9.59622
▁▪	-9.59671
qi	-9.59674
▁rréi	-9.59675
90	-9.60034
kunatam	-9.60038
ika	-9.6014
ñembo	-9.6014
▁Hay	-9.60143
ntin	-9.60165
▁yu	-9.60174
▁Francisco	-9.60256
▁héntepe	-9.60354
íri	-9.60386
▁tenían	-9.60389
▁Ara	-9.60429
yoq	-9.60534
▁ká	-9.60649
▁Porque	-9.6066
▁kikin	-9.60693
ñepyrũ	-9.60809
▁países	-9.6081
xe	-9.60827
ER	-9.60948
▁lleva	-9.60963
▁Ce	-9.60987
▁encontrar	-9.6099
▁opavave	-9.61006
▁Mana	-9.61066
▁oración	-9.61205
▁Carlos	-9.61226
▁predicación	-9.61381
▁yoyo	-9.61516
▁man	-9.61524
▁cre	-9.61532
▁tari	-9.61549
▁vo	-9.6166
né	-9.61665
▁testígo	-9.61666
▁Ana	-9.61726
tava	-9.61733
▁respuesta	-9.61771
▁autoridad	-9.61818
ista	-9.61853
▁bondad	-9.61876
ina	-9.61901
para	-9.61926
gen	-9.61948
ine	-9.61988
▁usar	-9.62018
gan	-9.62029
▁dirección	-9.62178
▁programa	-9.62203
tivo	-9.62231
▁fácil	-9.62247
aguapy	-9.62261
día	-9.62272
Re	-9.62288
▁)	-9.62355
▁proyecto	-9.62357
▁comunidad	-9.62362
▁vove	-9.62395
jey	-9.62456
▁opaite	-9.62492
▁konsého	-9.62563
▁x	-9.62632
spanku	-9.62695
▁quería	-9.62753
▁qawachi	-9.62762
60	-9.62905
kon	-9.62906
▁permite	-9.62978
▁Sara	-9.63003
▁ija	-9.63046
▁willaku	-9.63075
▁Pre	-9.63077
▁ora	-9.63119
▁respeta	-9.63139
sí	-9.63193
ekuaarã	-9.63208
at	-9.63299
▁sabía	-9.63365
▁Marco	-9.63443
▁ipan	-9.63492
▁lliw	-9.63596
▁tras	-9.6363
nal	-9.63633
▁7:	-9.63677
4).	-9.63757
ygua	-9.63767
▁ci	-9.63771
▁eterna	-9.63795
▁especial	-9.63948
MO	-9.64017
▁ellas	-9.6403
▁lugár	-9.64044
rupi	-9.6406
▁mostrar	-9.64065
▁Rosa	-9.64141
égui	-9.64225
▁car	-9.64262
▁judíos	-9.64276
im	-9.64328
▁11:	-9.64377
▁peteî	-9.6446
kuérape	-9.64462
▁espera	-9.64517
▁párrafo	-9.64522
▁Más	-9.64542
ario	-9.64636
▁utiliza	-9.64669
▁serán	-9.64686
▁wawa	-9.64735
▁hesekuéra	-9.64774
▁par	-9.64785
▁Salomón	-9.64827
vá	-9.6483
▁grandes	-9.64862
ñi	-9.64906
▁10:	-9.64925
kurqa	-9.64954
▁hinalla	-9.64995
▁wasi	-9.6519
▁oñangareko	-9.65329
per	-9.65396
▁sería	-9.6542
guápe	-9.65437
naykipaq	-9.65473
una	-9.65489
▁difícil	-9.65543
véi	-9.65562
▁ramo	-9.65574
14	-9.656
▁osegi	-9.65606
umi	-9.65739
▁mantener	-9.65763
▁realidad	-9.65808
▁Tayta	-9.65858
▁Samuel	-9.6589
den	-9.65953
▁Sal	-9.66003
ber	-9.66072
▁uan	-9.66092
▁runakunapa	-9.66101
▁Diablo	-9.66152
▁decisión	-9.66155
pacha	-9.66214
Á	-9.6627
▁espirituales	-9.66285
▁Man	-9.66368
▁ixon	-9.66374
Ca	-9.66403
ris	-9.66407
▁ndoje	-9.66427
dia	-9.66434
▁niko	-9.66471
▁oñemoĩ	-9.66474
▁ojerure	-9.66487
▁8:	-9.6651
▁parece	-9.66663
ama	-9.6693
▁araka	-9.66948
▁humanidad	-9.6701
ekuére	-9.67025
▁contenido	-9.67091
ngu	-9.67132
kun	-9.6714
▁campo	-9.67356
▁go	-9.67414
or	-9.67428
▁oĩha	-9.67504
26	-9.67533
▁problema	-9.67577
ỹre	-9.67614
▁imapas	-9.67616
▁cristiana	-9.67767
▁wan	-9.67894
▁noñe	-9.67944
pla	-9.6796
▁willa	-9.67981
▁hendive	-9.68002
▁presidente	-9.6801
catl	-9.68069
hú	-9.68099
Jehová	-9.68173
▁llegó	-9.68174
▁2013	-9.68337
Se	-9.68381
Hech	-9.6847
rca	-9.6851
▁actitud	-9.68528
Luc	-9.68564
▁pesar	-9.68604
▁fuerte	-9.68614
ë	-9.68637
▁invita	-9.68686
-3	-9.68754
▁aquel	-9.68817
chí	-9.68931
▁largo	-9.68993
▁Miguel	-9.6908
▁responsabilidad	-9.69158
way	-9.69216
ieron	-9.69266
▁libre	-9.69285
▁completo	-9.69324
23	-9.69344
▁ukan	-9.69386
▁bíblico	-9.69459
18	-9.69484
▁poguýpe	-9.69498
ld	-9.69522
fer	-9.69639
▁iskay	-9.69675
▁uñt	-9.69779
▁Antonio	-9.69793
▁sabiduría	-9.6982
▁ñanepytyvõta	-9.69856
▁segundo	-9.69876
▁hacerlo	-9.69882
▁visita	-9.69888
▁3:1	-9.70024
ychik	-9.70043
sis	-9.70073
▁llaqtanqa	-9.7009
▁pequeña	-9.70099
80	-9.7016
tú	-9.70269
ac	-9.70366
▁II	-9.70531
hy	-9.70531
22	-9.70615
paite	-9.70673
▁joi	-9.70697
▁gracias	-9.70754
▁comer	-9.70765
éta	-9.70779
niki	-9.70791
▁experiencia	-9.71073
▁archivo	-9.71122
▁jahechauka	-9.712
pxa	-9.71273
▁provléma	-9.71277
rayku	-9.71376
ï	-9.71425
rían	-9.71427
ér	-9.71466
▁jaqi	-9.71471
nqaku	-9.7151
▁carne	-9.71518
ser	-9.7155
▁vése	-9.71636
▁f	-9.71668
▁espiritu	-9.71678
▁Egipto	-9.71692
ia	-9.717
▁apo	-9.71783
.”	-9.71798
▁animales	-9.71985
jerovia	-9.72004
leey	-9.72021
strong	-9.7213
▁ohayhu	-9.72133
▁12:	-9.72141
ari	-9.72169
▁varios	-9.72275
▁kaynata	-9.72292
eporã	-9.72319
▁ñañeha	-9.72444
nio	-9.72499
▁hora	-9.72532
▁iba	-9.72539
mombe	-9.72552
▁cambio	-9.72554
tzi	-9.72565
Ja	-9.72653
▁cē	-9.72725
▁conciencia	-9.72826
rma	-9.72938
▁semana	-9.72988
▁representa	-9.73066
▁família	-9.73121
▁res	-9.73156
▁Ex	-9.7327
tã	-9.73291
sqanchikta	-9.73314
▁2012	-9.73383
ados	-9.73427
Si	-9.73448
▁línea	-9.73456
▁siete	-9.73554
▁Rréino	-9.73568
▁obras	-9.73579
▁decisiones	-9.73629
ái	-9.73634
imo	-9.73711
▁ohóvo	-9.73711
▁alguna	-9.73727
Génesis	-9.73811
▁marca	-9.73825
▁Tal	-9.73905
ávo	-9.73928
▁chuya	-9.73936
rado	-9.73991
akin	-9.74006
hue	-9.74025
▁México	-9.74031
▁estudiar	-9.74042
16	-9.74048
▁meta	-9.74088
TE	-9.74125
▁Fi	-9.74153
zca	-9.74157
Prov	-9.74163
▁demostrar	-9.74193
▁Chaymantapas	-9.7421
▁Mayukuna	-9.74349
▁mbohapy	-9.74349
▁amigo	-9.74401
▁–	-9.74414
▁cumplir	-9.74517
▁pasar	-9.74543
Vea	-9.74549
▁fuerza	-9.74564
▁bu	-9.74755
▁iporãva	-9.74812
▁fi	-9.74819
▁Fa	-9.7499
▁Sam	-9.75037
▁oipuru	-9.75053
▁verdadero	-9.75068
Te	-9.7509
▁Jesúspe	-9.75115
▁dolor	-9.75138
▁señor	-9.75198
▁joni	-9.75228
hayhu	-9.75249
há	-9.75309
▁pública	-9.75309
▁oikove	-9.75316
▁wañusqa	-9.75368
▁tema	-9.754
▁escucha	-9.75427
mpo	-9.75427
▁ñanembo	-9.75549
nica	-9.7555
vé	-9.75638
▁14:	-9.75743
sha	-9.75757
">	-9.7576
nsa	-9.75782
▁libertad	-9.75808
wanchik	-9.75824
▁anima	-9.75829
▁realiza	-9.75883
cos	-9.75934
▁of	-9.75936
stru	-9.75956
énte	-9.7607
▁échi	-9.76077
▁haciendo	-9.76095
▁má	-9.7611
▁dibujo	-9.76131
28	-9.76168
kunapaq	-9.76179
▁mañana	-9.76286
▁visto	-9.76346
naypaq	-9.76353
▁llaqtayuq	-9.76447
dió	-9.76478
▁ojepy	-9.76548
W	-9.76562
véima	-9.76566
▁naciones	-9.76599
▁respeto	-9.76634
ynin	-9.76675
▁amar	-9.76704
▁ñepyrũ	-9.76707
▁siendo	-9.76742
ví	-9.76753
▁público	-9.76794
▁celestial	-9.76812
DO	-9.7688
▁Ped	-9.76881
▁aymara	-9.76902
tiva	-9.76993
cómo	-9.7713
rus	-9.7723
▁siente	-9.77259
kanai	-9.77306
▁1,	-9.77321
▁centro	-9.77325
am	-9.77389
▁Constitución	-9.77411
▁rrelihión	-9.77467
mantam	-9.77483
▁Va	-9.77487
ỹijo	-9.77515
kuspa	-9.7752
pykue	-9.77631
▁Mozilla	-9.77646
sqankumanta	-9.77667
kai	-9.77671
▁9:	-9.77676
bles	-9.77698
eichaitépa	-9.77706
▁mismos	-9.77822
ano	-9.77882
▁runakunam	-9.77912
▁juicio	-9.77916
▁Jehú	-9.77962
▁vino	-9.78096
vu	-9.78142
aiterei	-9.78153
▁Ministerio	-9.78246
zar	-9.78338
▁15:	-9.78358
▁imatapas	-9.78382
▁tiempos	-9.78426
gado	-9.78435
▁ohupyty	-9.78785
▁todavía	-9.78861
▁’,	-9.78862
▁Según	-9.79063
.*	-9.7907
ál	-9.79075
ekuaa	-9.79083
▁deseo	-9.79158
▁añoite	-9.7916
nko	-9.79233
ren	-9.79263
▁renda	-9.79382
▁conoce	-9.79385
▁ynic	-9.79422
▁sean	-9.79432
}	-9.7954
▁llega	-9.79545
▁mapu	-9.79567
▁dentro	-9.79586
for	-9.79656
Ko	-9.79669
24	-9.7967
8,	-9.79721
cido	-9.79729
▁libra	-9.79764
▁escrito	-9.79795
tre	-9.79838
▁kallpancha	-9.79919
sar	-9.79984
▁Cabeza	-9.80069
▁Proverbios	-9.80253
lti	-9.80289
gob	-9.80345
léase	-9.80439
▁punta	-9.80459
▁confia	-9.805
?”.	-9.8051
▁sunqu	-9.80511
▁Nueva	-9.8052
▁inglés	-9.80561
▁Diosman	-9.80569
hasa	-9.80603
▁junto	-9.80641
▁región	-9.80684
cto	-9.80693
▁carga	-9.80774
▁voz	-9.80789
ización	-9.80789
▁nación	-9.80901
guereko	-9.80941
mbu	-9.80955
Pa	-9.81035
▁Todos	-9.81065
▁poner	-9.81068
▁Romanos	-9.81112
▁mes	-9.81175
▁rangue	-9.81219
pensa	-9.81343
5,	-9.81362
▁g	-9.8137
▁chu	-9.81394
▁síno	-9.81432
Lucas	-9.81459
ö	-9.81469
▁nisqanman	-9.81485
▁Lla	-9.81517
▁qhichwa	-9.81521
▁oi	-9.81551
▁ts	-9.81553
▁rejapo	-9.81647
▁tape	-9.81678
▁ohendu	-9.81711
▁ojekuaa	-9.8173
ira	-9.81762
▁luz	-9.81763
VA	-9.81794
ger	-9.81845
▁kanqa	-9.81866
▁puesto	-9.81967
▁ara	-9.8198
▁akóinte	-9.81989
▁saqe	-9.8203
vare	-9.82044
jó	-9.82053
nce	-9.82078
▁verdadera	-9.82082
▁actual	-9.82102
à	-9.82114
▁Añetehápe	-9.82152
bilidad	-9.82164
▁publicaciones	-9.82187
▁karai	-9.8221
▁Yvy	-9.82257
▁revela	-9.82263
▁RE	-9.82299
▁Quchakuna	-9.82427
jan	-9.82438
cui	-9.82492
▁jajerovia	-9.82529
ctor	-9.82535
rurqa	-9.82536
▁añetehápe	-9.82544
▁alma	-9.8256
▁gana	-9.82667
▁evitar	-9.82732
rea	-9.82867
Heb	-9.82886
rme	-9.82891
niyoq	-9.82945
lis	-9.82955
▁Ke	-9.82978
▁#	-9.82989
▁papel	-9.83159
nchu	-9.83161
▁Algunos	-9.83247
▁trans	-9.83304
amos	-9.83344
pampa	-9.8337
°	-9.83373
spanmi	-9.83389
ekuépe	-9.83402
cta	-9.83525
ones	-9.83525
▁viven	-9.83587
▁Asunción	-9.83596
cla	-9.83616
▁on	-9.8369
▁Á	-9.83717
▁iti	-9.83826
Í	-9.83864
▁encuentra	-9.83891
1,	-9.83911
ãiha	-9.83949
▁papa	-9.84062
ló	-9.84083
▁yma	-9.84087
▁Urqukuna	-9.84329
▁>	-9.8434
▁2010	-9.84351
ix	-9.84361
▁ÑÑB	-9.84457
▁preocupa	-9.84497
▁Per	-9.84537
▁Yu	-9.84573
▁correo	-9.84656
▁lista	-9.84663
▁Puede	-9.84702
íta	-9.84828
▁Marcos	-9.84885
qta	-9.84937
▁imagen	-9.84977
▁nació	-9.84994
▁ánhel	-9.85003
▁odesidi	-9.85045
TO	-9.85048
▁idea	-9.85067
▁manos	-9.85085
▁Ñandejárare	-9.85138
lica	-9.85292
▁considera	-9.85309
▁Hoy	-9.85317
▁mundial	-9.85326
AR	-9.85332
Cuál	-9.85483
▁versión	-9.85492
▁aña	-9.85513
▁vio	-9.85525
▁ngu	-9.85532
▁13:	-9.85574
▁uma	-9.85746
▁Paraguái	-9.85748
▁Nu	-9.8581
▁feliz	-9.85863
Con	-9.85879
▁kusisqa	-9.85897
guasu	-9.85904
▁Universidad	-9.85909
▁debido	-9.8598
ñu	-9.86042
Dios	-9.8606
sas	-9.86067
▁cualidades	-9.86081
▁beneficia	-9.86104
7,	-9.86104
sio	-9.8611
▁goviérno	-9.86234
▁principal	-9.86273
▁tribu	-9.86294
▁kananpaq	-9.86389
cciones	-9.86412
nanchikpaq	-9.86464
puru	-9.86505
▁cambiar	-9.86566
▁menudo	-9.86594
▁fiesta	-9.86595
kuaáva	-9.86623
ales	-9.86623
▁oin	-9.86633
▁jerovia	-9.86684
▁desarrollo	-9.86856
▁Mesías	-9.86856
▁Za	-9.86889
▁oikóta	-9.86897
ndy	-9.86945
▁viene	-9.87012
▁W	-9.87052
Gén	-9.87062
ual	-9.87064
oka	-9.87087
Ñ	-9.87117
▁5.	-9.87137
▁ovejas	-9.87139
▁base	-9.87173
iro	-9.87205
▁casi	-9.87267
▁sur	-9.87314
g̃uahẽ	-9.87445
▁kanman	-9.87447
AN	-9.8749
▁javy	-9.87534
▁ihuan	-9.8754
▁actividades	-9.87631
▁ikatúta	-9.87647
▁yoi	-9.87652
tho	-9.8774
jerure	-9.87744
▁Ver	-9.87774
▁cargo	-9.87786
▁ello	-9.87791
▁yupaycha	-9.87815
rina	-9.87845
▁tsi	-9.87885
▁quién	-9.87914
▁atra	-9.87954
yki	-9.87955
▁100	-9.88058
▁3.	-9.88099
▁quechua	-9.88124
▁cree	-9.88145
kiti	-9.88154
▁diferencia	-9.88158
pia	-9.88163
▁últimos	-9.88178
▁leyes	-9.88182
eño	-9.88362
2).	-9.88384
▁qucha	-9.88408
▁profesor	-9.8841
▁trabajar	-9.88412
12).	-9.88465
▁hicieron	-9.88492
▁40	-9.88513
▁consejos	-9.88557
▁lado	-9.88619
▁divina	-9.88678
▁distritu	-9.88705
ýpe	-9.8872
▁cuidado	-9.88791
▁50	-9.88822
▁ojehecha	-9.88829
rios	-9.8885
▁mato	-9.88917
áramo	-9.88962
▁comenzó	-9.8898
▁ītōcā	-9.89012
▁buscar	-9.89019
studia	-9.89029
mati	-9.8909
â	-9.89125
spaqa	-9.8914
▁jefe	-9.89157
joko	-9.89166
▁oñondive	-9.89193
ame	-9.89217
▁Testigos	-9.89225
▁puri	-9.89239
▁Bu	-9.89249
▁kunan	-9.89264
▁seis	-9.89334
▁nota	-9.89338
▁páhina	-9.89351
▁comp	-9.894
ol	-9.89441
▁propio	-9.89444
▁Bar	-9.89445
▁Ciudad	-9.89516
tion	-9.89523
Hechos	-9.89531
mento	-9.89554
il	-9.89604
▁href	-9.89752
▁nt	-9.89758
▁5,	-9.89777
ptin	-9.89795
▁derechos	-9.89806
▁razones	-9.8982
▁volver	-9.8983
▁EN	-9.89856
▁fu	-9.89859
▁Ch	-9.8987
▁personal	-9.89905
dica	-9.90113
▁acepta	-9.90158
▁ñamomba	-9.90192
▁ombohovái	-9.90246
hechakuaa	-9.90271
▁único	-9.90362
▁uta	-9.90521
▁adoración	-9.9067
▁renondépe	-9.90702
▁propia	-9.90734
▁oportunidad	-9.90759
short	-9.90799
▁alto	-9.90826
▁Auh	-9.9091
▁kuatia	-9.90941
cá	-9.91023
▁revista	-9.9104
ap	-9.91073
▁llena	-9.91085
ció	-9.91104
▁nacional	-9.91109
▁gusta	-9.91111
▁testigo	-9.91174
▁Ge	-9.91224
▁Upépe	-9.91284
▁escuchar	-9.91284
▁mucha	-9.91342
▁jakon	-9.91343
cía	-9.914
▁dejó	-9.91467
▁cosa	-9.91477
▁realizar	-9.91485
ý	-9.91497
▁cabo	-9.91543
▁qellqa	-9.91591
▁Col	-9.91616
raka	-9.91671
▁Jacob	-9.91679
pon	-9.9168
▁1:1	-9.91722
▁sy	-9.91822
▁Gua	-9.91828
SA	-9.91833
▁Argentina	-9.91834
▁interior	-9.91836
▁Betel	-9.91869
▁ángeles	-9.9192
▁guaraní	-9.91975
ing	-9.92144
▁Atalaya	-9.9218
▁21:	-9.92183
▁jawe	-9.92189
tación	-9.92212
aj	-9.92325
▁noa	-9.92334
ýi	-9.9236
▁ofrece	-9.9236
▁yoia	-9.92396
ut	-9.92403
ñangareko	-9.92421
▁puso	-9.92472
cul	-9.92487
▁wetsa	-9.92587
▁rembipota	-9.92596
nmanku	-9.92632
kunapas	-9.92659
tán	-9.92678
▁asi	-9.92715
▁pronto	-9.92763
nca	-9.92802
▁control	-9.92911
▁hinaspam	-9.92916
▁Durant	-9.92933
▁runakunaqa	-9.92957
▁Luego	-9.92979
31	-9.92985
▁páginas	-9.93009
▁sola	-9.93031
▁educación	-9.93041
▁compañeros	-9.93179
▁cambia	-9.93188
▁sé	-9.93209
lde	-9.93244
▁artíkulo	-9.93246
▁objetivo	-9.93269
tiri	-9.93279
▁cheqap	-9.93301
▁cumpli	-9.93453
▁hubiera	-9.93469
guá	-9.93554
▁meses	-9.93566
▁distrito	-9.93574
kunaman	-9.93637
▁4.	-9.93681
Pro	-9.93703
▁añete	-9.93715
ino	-9.93807
▁apóstoles	-9.93838
tico	-9.93994
uri	-9.94025
tera	-9.9408
puni	-9.94087
▁Apóstol	-9.94101
▁promesa	-9.94125
llam	-9.94152
▁octubre	-9.94172
▁Ab	-9.94229
▁ñapensa	-9.94247
▁auh	-9.94248
▁hasy	-9.94308
3,	-9.94319
e̱	-9.94321
nanmanta	-9.94354
X	-9.9437
▁oime	-9.94371
▁sigue	-9.94418
ini	-9.94466
bri	-9.94598
ity	-9.94668
▁apoyo	-9.94713
▁léi	-9.94715
▁oñeñandu	-9.94772
▁nato	-9.94817
▁reñói	-9.94918
î	-9.94925
▁castellano	-9.94926
▁gui	-9.94941
▁Aka	-9.94961
gro	-9.94982
29	-9.94998
gos	-9.95007
▁Ani	-9.95044
ãmbaite	-9.95094
▁Ella	-9.95116
ike	-9.9512
▁iká	-9.95133
cre	-9.95199
▁sacrificio	-9.95204
maha	-9.95212
▁Her	-9.95246
éiva	-9.95339
nge	-9.95386
▁protección	-9.95487
dé	-9.95538
▁sangre	-9.95613
side	-9.95621
▁...	-9.95746
▁sabemos	-9.95758
ías	-9.95827
ly	-9.95832
▁salva	-9.95835
▁kaspa	-9.95865
▁proceso	-9.95892
▁comida	-9.95908
▁d	-9.95927
mante	-9.95991
par	-9.96093
▁importancia	-9.96141
▁ukhamarak	-9.96172
én	-9.96182
▁llamada	-9.96208
▁tso	-9.96226
sqayki	-9.96295
▁situasión	-9.96348
mava	-9.96394
▁reunión	-9.96426
▁22:	-9.96439
já	-9.96479
mantapas	-9.96549
▁menciona	-9.96584
ẽnguéra	-9.96632
pari	-9.96649
niyuq	-9.96652
▁enfermedad	-9.96654
▁ob	-9.96656
▁“¡	-9.96682
▁árape	-9.96698
▁pruebas	-9.96732
▁okambia	-9.96789
▁peligro	-9.96811
uti	-9.96927
▁suma	-9.96956
▁%(	-9.97057
▁pueda	-9.97076
▁1914	-9.97083
▁motivo	-9.97094
27	-9.97128
▁Gu	-9.97227
▁gri	-9.97229
ora	-9.97244
▁política	-9.97323
▁español	-9.97343
sunchik	-9.9736
▁ninguna	-9.9737
▁Sí	-9.97407
▁Gran	-9.97445
▁lugares	-9.97456
cue	-9.9747
▁Bibliapa	-9.97473
▁prepara	-9.97488
mbre	-9.97541
▁último	-9.97619
▁resultado	-9.97634
ymanta	-9.9765
▁vamos	-9.97669
▁payqa	-9.97701
iete	-9.97759
▁nisqanta	-9.97858
ꟲ	-9.97876
▁alegría	-9.97876
▁allá	-9.97911
▁siémpre	-9.97913
▁marzo	-9.97943
▁anta	-9.97966
▁sentir	-9.9803
▁bíblicas	-9.98062
tua	-9.98084
▁fruto	-9.98096
▁Desde	-9.98103
mantaqa	-9.98135
▁jatian	-9.98206
▁wisha	-9.98326
ndá	-9.984
▁is	-9.98419
kí	-9.98477
▁social	-9.98489
ninchik	-9.98494
▁religión	-9.98538
▁ñawpaq	-9.98576
▁20:	-9.98585
▁acceso	-9.98612
éramo	-9.98618
▁’.	-9.98682
▁Hechos	-9.98694
▁Facebook	-9.98759
▁John	-9.98768
rle	-9.98794
moneĩ	-9.9884
vó	-9.98847
▁."	-9.9885
ere	-9.98873
▁ñembo	-9.9888
:13).	-9.9889
▁́mi	-9.98961
▁enseñar	-9.98965
▁huel	-9.98969
der	-9.98978
▁horas	-9.99066
▁@	-9.99124
▁respecto	-9.9913
raki	-9.99235
▁pudo	-9.99256
▁capítulo	-9.99339
▁taha	-9.99346
▁pruwinsya	-9.99372
qkuna	-9.99377
ió	-9.99415
tha	-9.99482
▁busca	-9.99508
▁dicen	-9.99519
▁Ve	-9.99573
▁juk	-9.99602
ī	-9.99633
bla	-9.99652
▁vive	-9.99715
▁kani	-9.9973
▁enfrenta	-9.99763
▁10).	-9.99781
asi	-9.99865
▁JEHOVÁ	-9.99874
▁diez	-9.99877
6,	-9.9999
▁video	-9.99995
▁mas	-10.0001
▁tanta	-10.0004
▁servichiku	-10.0005
cida	-10.0005
▁queremos	-10.001
ner	-10.001
mpu	-10.0014
▁cua	-10.0016
▁cuida	-10.0018
▁Veamos	-10.0018
jero	-10.0023
bé	-10.0023
▁Payqa	-10.0028
▁esté	-10.0029
▁yachachikuy	-10.0033
ral	-10.0034
▁anterior	-10.0034
▁katt	-10.0038
▁asamblea	-10.0047
▁Manam	-10.0051
▁asegura	-10.0052
▁oja	-10.0059
▁varias	-10.0061
wá	-10.0066
▁ashaninka	-10.007
▁pláta	-10.0074
▁EL	-10.0074
sin	-10.0075
▁ivaíva	-10.0075
VE	-10.0075
stre	-10.0076
mán	-10.0092
ndé	-10.0096
▁24:	-10.0102
▁16:	-10.0107
▁uñnaqa	-10.0108
▁nacion	-10.0111
dra	-10.0112
̱t	-10.0113
▁hará	-10.0114
ngue	-10.0117
▁HA	-10.0119
▁acaba	-10.0123
▁32	-10.0125
▁oikova	-10.0131
▁kimsa	-10.0131
▁kaptinpas	-10.0133
▁oraciones	-10.0135
▁puerta	-10.0135
tt	-10.0138
▁du	-10.0142
▁héra	-10.0142
▁kuatiarogue	-10.0146
▁lu	-10.0148
▁frente	-10.0149
Me	-10.015
▁kawsay	-10.0153
▁orden	-10.0156
▁presenta	-10.0157
▁kundahára	-10.0157
amongeta	-10.0157
▁qawachin	-10.0159
▁guía	-10.0165
NA	-10.0168
▁oúva	-10.0168
▁mente	-10.0168
▁certificado	-10.017
teri	-10.0171
▁Bolivia	-10.0176
▁Piruwpi	-10.0179
▁territorio	-10.018
▁buenos	-10.0181
▁siguientes	-10.0184
▁árbol	-10.0186
▁Fue	-10.0186
sapa	-10.0193
llaña	-10.0196
tli	-10.02
tĩ	-10.0205
rux	-10.0216
▁Mama	-10.0217
▁Jahechamína	-10.0218
▁aquellos	-10.0228
hechauka	-10.0232
ología	-10.0239
▁importantes	-10.024
▁supuesto	-10.0242
mohenda	-10.0244
rón	-10.0252
9,	-10.0254
sá	-10.0254
▁hucha	-10.0254
▁upéicharõ	-10.0255
DA	-10.0258
ipo	-10.0258
▁Is	-10.0259
▁ajapo	-10.026
aw	-10.0262
▁claro	-10.0263
pay	-10.0266
▁jesús	-10.0268
▁cielos	-10.0272
▁ayudó	-10.0276
uy	-10.0276
▁Babilonia	-10.0277
▁tratar	-10.0281
▁18:	-10.0284
quin	-10.0285
port	-10.0288
▁arma	-10.0288
RO	-10.0292
▁Mat	-10.0297
▁ipo	-10.0305
▁2014	-10.0306
▁ndai	-10.0309
▁iglesia	-10.031
▁tenga	-10.0314
▁w	-10.0317
▁Gi	-10.0317
pt	-10.0319
▁interés	-10.0326
apóva	-10.0326
lin	-10.0332
MA	-10.0332
lio	-10.0333
Quién	-10.0334
mas	-10.0334
mína	-10.0338
▁error	-10.034
rqani	-10.0341
▁interesa	-10.0342
▁19:	-10.0343
▁phaxsin	-10.0344
▁im	-10.0348
DE	-10.0359
tari	-10.0373
uda	-10.0375
35	-10.0376
val	-10.0377
chasqa	-10.0379
▁ocho	-10.0379
kiri	-10.0381
▁justo	-10.0382
▁oficial	-10.0386
LI	-10.0388
▁llapallan	-10.0389
▁qallarisqa	-10.0391
nse	-10.0394
▁tengo	-10.0398
▁práctica	-10.0404
▁Ita	-10.0409
hual	-10.0415
▁fuego	-10.0426
▁medios	-10.0435
lan	-10.0436
▁ñ	-10.045
▁Muchos	-10.045
spi	-10.0457
perdona	-10.0458
▁omokyre	-10.0465
▁última	-10.0466
▁chaynapi	-10.0466
kay	-10.0467
▁resurrección	-10.047
▁normas	-10.0475
▁pequeño	-10.0476
▁Tom	-10.0479
▁mé	-10.048
mina	-10.048
ninta	-10.0481
▁Ji	-10.0481
▁rete	-10.0481
▁2:1	-10.0486
len	-10.0488
ruw	-10.049
▁señala	-10.049
▁cultura	-10.0491
01	-10.0496
▁esclavo	-10.0503
kú	-10.0504
▁mbarete	-10.0508
▁gozo	-10.0528
▁17:	-10.0528
▁Nuevo	-10.0533
ívo	-10.0534
hó	-10.0537
▁morir	-10.0541
▁Presidente	-10.0545
▁ñaipytyvõ	-10.0545
▁kanku	-10.0549
▁Manuel	-10.0549
▁sutiyoq	-10.0549
▁kaqkuna	-10.055
▁ohai	-10.0562
éro	-10.0565
▁oño	-10.0566
▁ruway	-10.0567
▁qallari	-10.0574
▁ntsu	-10.0578
▁auto	-10.0579
▁presente	-10.058
▁come	-10.0584
▁primeros	-10.0588
gas	-10.0595
▁superintendente	-10.06
nanta	-10.0613
ándose	-10.0616
vio	-10.062
▁for	-10.0624
%1$	-10.0626
nco	-10.0627
▁pisi	-10.0628
▁Perú	-10.0628
▁nisqapi	-10.0634
ES	-10.0635
fre	-10.0636
▁felices	-10.064
▁Cámara	-10.064
▁za	-10.0641
▁Entre	-10.0642
chay	-10.065
▁manaña	-10.0651
▁rimay	-10.0651
▁levanta	-10.0652
mano	-10.0655
dro	-10.0658
hague	-10.066
▁Uka	-10.0663
▁juntos	-10.0676
▁japredika	-10.0676
▁iña	-10.0677
▁cambios	-10.0682
Proverbios	-10.0684
▁Nde	-10.0684
aq	-10.0689
▁idiomas	-10.07
▁oñeñe	-10.0708
▁bakebo	-10.071
(	-10.071
fal	-10.0712
▁Jeremías	-10.0717
uel	-10.0721
chka	-10.0724
="	-10.0725
▁Sol	-10.0725
mokyre	-10.0725
39	-10.073
▁gua	-10.0731
aron	-10.0732
▁origen	-10.074
pýpe	-10.0741
col	-10.0751
▁chayta	-10.0753
tawan	-10.0757
mbohovái	-10.0763
=	-10.0777
▁sitios	-10.078
rlos	-10.0781
Imanasqam	-10.0783
▁Par	-10.0786
▁yuyari	-10.0789
kyhyje	-10.0791
▁jeike	-10.0792
tend	-10.0793
äwi	-10.0793
▁hinaqa	-10.0795
▁betan	-10.0797
▁viaje	-10.0802
br	-10.0805
▁Fe	-10.0808
▁yaqa	-10.0811
▁paciencia	-10.0813
hé	-10.0817
▁habitantes	-10.0822
ñataki	-10.0823
bires	-10.0824
▁ruray	-10.0828
▁jajepy	-10.0828
bia	-10.0833
▁tenido	-10.0834
▁Diosmi	-10.0835
manmi	-10.0839
▁delante	-10.0844
évo	-10.0845
▁soy	-10.0848
kara	-10.0852
▁Ñane	-10.0855
wayi	-10.0864
nsi	-10.0864
shaman	-10.0865
▁Saúl	-10.087
▁kanankupaq	-10.0872
▁utaq	-10.0874
▁abril	-10.0874
▁ayllu	-10.0875
pipas	-10.0875
▁autoridades	-10.0891
▁promete	-10.0893
▁Congreso	-10.0894
▁mymba	-10.0895
▁4).	-10.0897
▁kuna	-10.0901
table	-10.0914
yama	-10.0917
▁jasy	-10.0921
▁lucha	-10.0922
̱u	-10.0926
ctu	-10.0937
▁General	-10.094
▁equipo	-10.094
▁necesidades	-10.094
è	-10.0941
▁documento	-10.0943
tax	-10.0944
▁jaje	-10.0945
▁rikuri	-10.0949
mer	-10.0954
bí	-10.0954
saq	-10.0955
dura	-10.0955
▁mitãrusu	-10.0956
▁5:1	-10.0958
guy	-10.0959
kari	-10.0964
▁electrónico	-10.0964
▁sacerdote	-10.0969
▁Ber	-10.0971
▁Federal	-10.0973
yó	-10.0978
▁Du	-10.0984
▁además	-10.0985
▁onan	-10.0985
naku	-10.0987
▁Upérõ	-10.0989
▁van	-10.0995
ad	-10.0998
▁estoy	-10.0998
▁yvyporakuéra	-10.0998
▁jaskara	-10.1013
▁llumpay	-10.1019
jepy	-10.1019
▁Villa	-10.1032
tivos	-10.1036
ñongatu	-10.1037
▁pri	-10.1039
bó	-10.1039
eri	-10.1042
▁época	-10.1047
cur	-10.1051
▁refiere	-10.1055
iwa	-10.1057
▁Hebreos	-10.1058
llata	-10.1059
▁privacidad	-10.106
▁dificultades	-10.1062
▁cantidad	-10.1064
08	-10.1069
▁bake	-10.107
▁uk	-10.1077
ē	-10.1079
▁regalo	-10.1085
▁visión	-10.1092
▁ermanokuéra	-10.1095
▁hermanas	-10.1097
▁obedecer	-10.1107
▁oiméne	-10.1108
▁muertos	-10.1109
▁manaraq	-10.1109
cé	-10.1113
▁ministro	-10.1114
▁demasiado	-10.1114
▁sub	-10.1119
▁kalindaryukama	-10.1126
▁común	-10.1127
▁Eso	-10.1135
▁6.	-10.1138
▁contrario	-10.1139
▁sentimientos	-10.1141
ed	-10.1146
ýva	-10.1147
▁lenguas	-10.115
pí	-10.1154
▁necesidad	-10.1155
▁«	-10.1156
▁Génesis	-10.1158
▁fuente	-10.1164
non	-10.1165
ptinqa	-10.1169
▁2009	-10.1172
▁agosto	-10.1173
▁puedo	-10.1173
▁jasegi	-10.1173
▁tuku	-10.1186
dera	-10.1186
▁Río	-10.1189
▁markan	-10.1192
Is	-10.1194
táva	-10.1196
▁imitar	-10.1196
▁creación	-10.1202
▁recordar	-10.1202
▁dura	-10.1204
abo	-10.1205
▁plan	-10.1206
▁7.	-10.1207
aba	-10.1209
▁disponible	-10.1215
▁oñekumpli	-10.1216
▁pie	-10.1218
▁puedes	-10.122
▁qatipaku	-10.1225
jehe	-10.1228
▁norte	-10.1233
▁Estos	-10.124
▁unidad	-10.1241
▁hogar	-10.1249
-20	-10.1253
mbyasy	-10.126
▁uywa	-10.1265
▁Creador	-10.127
▁proteger	-10.1272
ymi	-10.1274
▁hija	-10.1274
irinaka	-10.1278
rica	-10.1279
▁Maria	-10.1281
▁ikai	-10.1285
ff	-10.1287
▁hy	-10.129
0).	-10.1293
▁remo	-10.1294
▁rikch	-10.13
▁DEL	-10.1301
yari	-10.1303
▁PE	-10.1304
dá	-10.1305
▁Está	-10.1305
cht	-10.1307
▁informe	-10.1308
▁podrá	-10.1309
by	-10.1315
▁naña	-10.1316
▁Salón	-10.132
oso	-10.132
ura	-10.132
32	-10.132
▁opu	-10.1321
▁oikotevẽ	-10.1324
▁aquella	-10.1325
kuyta	-10.1326
ibo	-10.1336
▁pay	-10.1337
▁ira	-10.1338
nmanta	-10.1348
▁real	-10.135
▁col	-10.1355
▁ojejapóva	-10.1355
▁okumpli	-10.1356
▁Secretaría	-10.1364
taki	-10.1364
▁total	-10.1367
▁nacionpi	-10.1369
▁ndaipóri	-10.1372
tec	-10.1377
▁orar	-10.1377
ído	-10.1391
▁mayo	-10.1394
▁crea	-10.1395
▁kaqkunata	-10.1397
99	-10.1405
▁propiedad	-10.1407
▁añetegua	-10.1409
▁Tetã	-10.1411
▁capital	-10.1415
▁pipas	-10.1419
▁SUMO	-10.142
▁sesión	-10.142
mun	-10.1422
▁unhído	-10.1424
▁wataqa	-10.1427
SI	-10.1428
▁chuguikuéra	-10.1428
[	-10.143
▁tetãme	-10.1435
win	-10.1438
78	-10.1438
▁conducta	-10.145
▁ñaime	-10.145
▁Buliwya	-10.1452
▁esos	-10.1456
▁compañía	-10.1458
2,	-10.1464
▁Arí	-10.1467
▁2).	-10.147
menda	-10.147
▁miedo	-10.1471
▁opaichagua	-10.1474
▁partes	-10.1476
tak	-10.1486
heko	-10.1495
ntsi	-10.1497
▁debería	-10.1503
▁kayta	-10.1507
▁julio	-10.1508
▁Santo	-10.151
rqu	-10.1511
▁éxito	-10.1515
llapi	-10.1516
▁lura	-10.152
▁precursor	-10.1521
▁profesía	-10.1524
huan	-10.153
▁Áño	-10.1535
hesa	-10.1535
▁dan	-10.154
▁xo	-10.1542
ct	-10.1543
▁tendrá	-10.1544
▁cal	-10.1545
▁nó	-10.1546
rqaniku	-10.1546
▁hendivekuéra	-10.1547
44	-10.1548
▁medida	-10.1551
▁Léi	-10.1556
KA	-10.1557
juhu	-10.156
▁watam	-10.156
▁sara	-10.1561
eran	-10.1561
);	-10.1562
▁jeý	-10.1565
▁existe	-10.1567
ité	-10.157
▁segunda	-10.1576
iki	-10.1579
▁porandu	-10.1582
guero	-10.1587
▁rendápe	-10.1593
▁(2)	-10.1594
▁akai	-10.1596
zó	-10.1596
úpe	-10.16
jé	-10.16
▁haga	-10.1601
▁BNP	-10.1602
▁oro	-10.1603
▁humana	-10.1603
ah	-10.1604
▁ontende	-10.1607
▁humano	-10.161
▁raymi	-10.1612
▁ocasión	-10.1616
▁hacemos	-10.162
▁usu	-10.1621
▁chaylla	-10.1623
▁0	-10.1627
▁artículos	-10.1628
▁casado	-10.1631
▁obtener	-10.1634
▁70	-10.1639
▁karqaku	-10.1639
▁actuar	-10.164
▁Com	-10.1643
▁Ima	-10.1644
stó	-10.1646
▁35	-10.1648
▁j	-10.1659
▁kusiku	-10.1661
jy	-10.1661
▁afirma	-10.1664
▁gra	-10.1665
▁paso	-10.1666
▁pá	-10.1671
▁tendayke	-10.1673
▁kawsaku	-10.1676
▁JA	-10.168
▁fuerzas	-10.168
▁mayores	-10.1684
▁oka	-10.1687
55	-10.1689
aña	-10.169
▁ifamília	-10.1694
▁usuario	-10.1707
▁quin	-10.1711
▁isla	-10.1711
▁Tra	-10.1719
▁panta	-10.1721
▁MBA	-10.1724
▁casos	-10.1727
▁Wakin	-10.1728
▁aplicación	-10.1734
▁película	-10.1735
ntu	-10.1736
tä	-10.1736
▁(1)	-10.1743
▁jahechakuaa	-10.1747
trata	-10.1748
▁imandu	-10.1749
▁llamka	-10.1751
▁jajapova	-10.1752
▁empresa	-10.1753
▁hue	-10.1754
tix	-10.1755
▁yhuan	-10.1757
▁condiciones	-10.1757
▁habría	-10.176
▁calle	-10.1761
▁peẽme	-10.1761
dero	-10.1764
▁aravo	-10.1767
3).	-10.1767
aki	-10.1777
▁Val	-10.1778
qucha	-10.1786
Los	-10.1787
▁testimonio	-10.1789
nder	-10.1791
▁iñi	-10.1796
▁suti	-10.1802
dora	-10.1802
▁chunka	-10.1809
▁informa	-10.1812
▁honra	-10.1814
▁May	-10.1815
▁natural	-10.1816
▁televisión	-10.182
▁iména	-10.1825
nwa	-10.1827
▁rehehápe	-10.1829
rqachu	-10.1832
▁sasa	-10.1837
sal	-10.1838
▁qam	-10.184
▁color	-10.1843
▁ñemo	-10.1844
ykichik	-10.1845
kotevẽ	-10.1853
paye	-10.1854
▁hemimbo	-10.1856
83	-10.1857
▁Way	-10.1858
▁pecados	-10.186
Job	-10.1863
▁(3	-10.1864
rias	-10.1864
istas	-10.1869
▁participa	-10.1872
uká	-10.1879
▁jä	-10.1881
▁munisipyu	-10.1887
▁dónde	-10.1889
▁Revelación	-10.1892
▁expresión	-10.1893
▁%2$	-10.1896
▁planta	-10.1901
▁Escuela	-10.1901
▁España	-10.1901
ski	-10.1913
▁términos	-10.1918
▁kundaha	-10.1923
ento	-10.1924
▁influencia	-10.1928
▁Z	-10.193
▁7).	-10.1932
tawa	-10.194
▁ogoverna	-10.1943
blo	-10.1948
asa	-10.195
▁nai	-10.1953
▁ohechaukáva	-10.1954
▁nitaq	-10.1954
▁suya	-10.1976
▁profecía	-10.198
▁pasó	-10.199
▁yanapawanchik	-10.1992
Mar	-10.1996
ýte	-10.2
▁r	-10.2001
guerohory	-10.2003
aty	-10.2005
▁discurso	-10.2006
▁perder	-10.2006
▁señal	-10.2008
▁túva	-10.2014
▁sutin	-10.2018
▁rapichápe	-10.202
▁enemigos	-10.202
▁We	-10.2025
33	-10.203
▁escritor	-10.203
fra	-10.2032
▁empezar	-10.2035
gia	-10.2036
▁pareja	-10.2038
▁mburuvicha	-10.2041
▁III	-10.2044
pú	-10.2045
▁York	-10.2048
▁Gobierno	-10.205
▁kallpa	-10.2051
▁fra	-10.2052
▁jake	-10.2052
▁observa	-10.2053
▁maska	-10.2058
▁alrededor	-10.2067
vý	-10.2072
▁cuales	-10.2073
mandu	-10.2074
▁médico	-10.2075
▁período	-10.2079
▁presencia	-10.2079
ador	-10.2082
▁hudío	-10.2084
kum	-10.2085
▁contiene	-10.2086
stu	-10.2086
itépe	-10.2088
▁iro	-10.2088
nea	-10.2089
▁The	-10.2089
▁sufrimiento	-10.2098
▁paraíso	-10.2102
bora	-10.2106
▁ojapóta	-10.2115
▁sh	-10.2116
▁Ac	-10.2118
▁superior	-10.2121
▁nivel	-10.2123
▁ukatx	-10.2124
ot	-10.2125
▁recibido	-10.2125
▁oh	-10.2129
cra	-10.2129
Pi	-10.213
▁señora	-10.2133
▁data	-10.2138
98	-10.2145
▁Nda	-10.2152
tayna	-10.2152
Ta	-10.2153
▁omyesakã	-10.2156
▁paykuna	-10.2157
ykuna	-10.2158
36	-10.2162
▁suficiente	-10.2163
▁sabio	-10.2165
renda	-10.2165
▁Son	-10.2166
▁malo	-10.2167
▁guarda	-10.2167
▁recuerda	-10.2167
séi	-10.2168
HA	-10.2172
▁piña	-10.2173
▁qillqasqa	-10.2176
▁ciudades	-10.2182
▁ic	-10.2191
kõi	-10.2204
▁febrero	-10.2205
añ	-10.2206
nx	-10.2207
▁oréve	-10.2209
▁oimé	-10.2215
▁congregaciones	-10.2218
Le	-10.222
▁kastilla	-10.2227
ive	-10.2228
▁confiar	-10.2229
▁oñemomba	-10.2229
71	-10.2234
▁basa	-10.2235
isa	-10.2241
▁Guarani	-10.2243
▁(18	-10.2244
▁rurasqan	-10.2247
▁2008	-10.2248
bido	-10.225
▁completa	-10.2255
▁cónyuge	-10.2256
tai	-10.2266
▁yuyaymana	-10.2275
▁pla	-10.2293
▁costumbre	-10.2294
wala	-10.2294
▁pyhare	-10.2296
▁tuichavéva	-10.2301
▁chepytyvõ	-10.2304
▁Mientras	-10.2308
▁incluye	-10.2308
▁corre	-10.231
▁ojepuru	-10.231
▁dará	-10.2311
▁honor	-10.2314
▁2016	-10.2316
jopy	-10.2321
PI	-10.2326
▁quizás	-10.2327
nxa	-10.2328
▁ipa	-10.2331
▁raẽ	-10.2339
▁15).	-10.234
86	-10.234
▁péva	-10.2346
▁múndope	-10.2355
▁tai	-10.2355
mbe	-10.2357
▁sca	-10.2358
▁voy	-10.236
pyta	-10.2369
bá	-10.2369
▁acciones	-10.2376
▁wasikuna	-10.2377
pare	-10.2378
4,	-10.238
sor	-10.2381
▁Can	-10.2383
▁bendeci	-10.2388
▁í	-10.2391
eni	-10.2391
hai	-10.2392
▁ojeporu	-10.2393
▁reina	-10.2393
▁haykapipas	-10.2394
ɨ	-10.2395
▁waki	-10.2397
▁capacidad	-10.2398
▁qollqe	-10.2407
▁For	-10.2412
▁Yupaykuna	-10.2412
▁aceptar	-10.2414
▁tor	-10.2416
▁churi	-10.2417
▁Testigo	-10.2424
▁inic	-10.2425
▁opromete	-10.2426
rk	-10.2429
yeta	-10.2429
▁recibió	-10.2431
▁gloria	-10.2431
▁Monte	-10.2432
▁amta	-10.2432
KU	-10.2432
kiw	-10.2436
95	-10.2445
usa	-10.2446
▁clave	-10.2447
▁llegado	-10.245
▁militar	-10.245
tón	-10.2459
tsika	-10.2461
▁cristianokuna	-10.2466
▁ñaneñe	-10.2467
bira	-10.2469
34	-10.247
bu̱	-10.2471
▁recursos	-10.2472
▁conocido	-10.2474
▁Kóva	-10.2476
▁14).	-10.2478
diendo	-10.2482
▁óga	-10.249
▁tembipuru	-10.2494
▁wiñaypaq	-10.2494
▁anchata	-10.25
▁ermanokuérape	-10.2501
▁Casa	-10.251
kunatapas	-10.2515
▁michĩ	-10.2516
wanqa	-10.2518
▁sucede	-10.2519
09	-10.252
▁ica	-10.2522
▁Ore	-10.2523
ntó	-10.2523
▁esas	-10.2526
▁6).	-10.2527
▁participar	-10.2528
▁ocupa	-10.253
Ne	-10.2531
kuévo	-10.2531
ketian	-10.2532
▁9.	-10.2532
rla	-10.2533
qo	-10.2536
▁urqu	-10.2537
69	-10.2537
kuaái	-10.2537
sqanku	-10.2538
▁responder	-10.2542
dri	-10.2542
▁akã	-10.2542
▁foto	-10.2543
89	-10.2543
Rev	-10.2552
▁mávapa	-10.2556
▁bendiciones	-10.2557
▁artíkulope	-10.2557
▁paginapi	-10.2561
▁Or	-10.2567
aguasu	-10.2567
rori	-10.257
▁político	-10.257
▁firme	-10.2575
62	-10.2576
▁reqsi	-10.258
stro	-10.258
▁afecta	-10.2581
▁Municipalidad	-10.2581
ytaqa	-10.2583
ás	-10.2584
▁pacto	-10.2584
él	-10.2587
▁pone	-10.259
▁seguros	-10.2591
▁kua	-10.2591
cord	-10.2592
cula	-10.2593
▁aparece	-10.2596
▁qawachirqa	-10.2598
▁serie	-10.26
Ã	-10.2603
▁sociedad	-10.2604
stin	-10.2605
forma	-10.2606
éma	-10.2607
▁cariño	-10.2609
▁Elías	-10.2609
▁Judá	-10.2616
▁rescate	-10.2619
▁sakrifísio	-10.2619
61	-10.2622
▁aisati	-10.2629
▁tñan	-10.2629
ment	-10.263
▁particular	-10.2633
▁munan	-10.2634
▁rreunionhápe	-10.2638
▁Josué	-10.2638
nguéra	-10.264
▁oncan	-10.2641
▁ména	-10.2643
▁hendápe	-10.2643
▁pueblos	-10.2647
▁12:1	-10.2647
▁60	-10.2648
▁búsqueda	-10.2648
aciones	-10.2654
▁Oimé	-10.2655
nakan	-10.2657
▁Ye	-10.2662
▁puquy	-10.2663
lco	-10.2667
hendu	-10.2669
tur	-10.2675
asy	-10.2676
▁kilómetros	-10.268
¿	-10.2681
▁Chaynaqa	-10.2681
huac	-10.2683
poru	-10.2686
▁griego	-10.2687
akã	-10.2688
udi	-10.2691
▁17).	-10.2691
jogua	-10.2694
▁corta	-10.2696
02	-10.2698
▁Ehecha	-10.2698
enda	-10.2698
▁dä	-10.2701
▁comunicación	-10.2701
▁hembireko	-10.2703
▁paga	-10.2705
iza	-10.2706
▁declara	-10.2711
áma	-10.2711
Ú	-10.2712
▁jahecháta	-10.2713
▁haguépe	-10.2713
▁ejemplos	-10.2714
▁beneficios	-10.2716
▁2007	-10.2717
▁8.	-10.2717
▁enero	-10.272
▁CON	-10.2726
▁grave	-10.2726
phi	-10.2729
▁jonibo	-10.2732
ípe	-10.2735
▁4:1	-10.2738
▁llumpayta	-10.274
▁ké	-10.274
▁cri	-10.2741
▁allpa	-10.2745
▁miembro	-10.2749
▁relato	-10.2749
▁ñemigua	-10.2751
▁salir	-10.2752
ray	-10.2767
▁enterove	-10.2772
chin	-10.2777
▁2017	-10.279
▁semilla	-10.2794
▁utja	-10.2795
▁contar	-10.2799
▁habló	-10.28
▁funciona	-10.2802
▁oiporavo	-10.2806
▁Fo	-10.2807
▁entrega	-10.2808
▁dispuesto	-10.2809
▁13).	-10.2815
▁yapa	-10.2816
spankum	-10.2819
79	-10.282
ME	-10.2823
▁necesitan	-10.2823
▁Ser	-10.2824
▁LOS	-10.2824
▁willakuy	-10.2825
▁objeto	-10.2825
▁aswanqa	-10.283
▁lejos	-10.283
▁45	-10.2833
cieron	-10.2833
▁oipe	-10.2841
▁instrucciones	-10.2845
▁fortalecer	-10.2847
▁junio	-10.2848
47	-10.2849
▁kyre	-10.2853
▁rapichakuérape	-10.2854
uta	-10.2854
▁mācuīlpōhual	-10.2855
jas	-10.2856
▁ivai	-10.2862
ico	-10.2864
▁Isaac	-10.2865
NI	-10.2868
▁metá	-10.287
gio	-10.2872
▁kamachiq	-10.2874
tso	-10.2882
▁disfrutar	-10.2883
▁2015	-10.2886
momarandu	-10.2886
▁alimento	-10.289
Imata	-10.2891
gú	-10.2892
▁Mari	-10.2893
▁venga	-10.2894
LE	-10.2894
nayki	-10.2898
kha	-10.2901
▁oqui	-10.2904
tya	-10.2911
▁kanan	-10.2912
▁jain	-10.2913
ké	-10.2914
ywan	-10.2914
▁ndoikói	-10.2915
UE	-10.2916
88	-10.2916
▁sasachakuy	-10.2918
nera	-10.2919
67	-10.292
▁Iglesia	-10.2925
kanti	-10.2927
▁viuda	-10.2938
aguapýpe	-10.294
▁Qutanaka	-10.2941
▁euro	-10.2944
▁Uru	-10.2945
▁Fu	-10.2947
▁BIBLIA	-10.2955
▁creado	-10.2957
37	-10.296
▁Cre	-10.296
▁atipa	-10.2963
▁shi	-10.2966
nkuta	-10.2967
▁probable	-10.2969
chiq	-10.297
▁humilde	-10.2971
▁daño	-10.2975
nakuy	-10.2975
▁funciones	-10.2977
▁diossen	-10.2978
yman	-10.2983
▁oko	-10.2984
▁Allin	-10.2984
▁añe	-10.2985
▁avave	-10.2986
.</	-10.2989
nkuchu	-10.2995
▁oñehundi	-10.2997
▁mozo	-10.2998
▁mamá	-10.2998
▁tembi	-10.3003
▁ogueraha	-10.301
▁comprender	-10.3014
▁ipu	-10.3016
▁estuvo	-10.3021
▁traducción	-10.3021
▁Sapy	-10.3022
torio	-10.3023
▁qullqi	-10.3026
sqay	-10.3028
Umi	-10.303
▁perfecto	-10.3031
▁tienes	-10.3031
▁sociales	-10.3033
▁Todo	-10.3034
prende	-10.3036
hupyty	-10.304
arã	-10.3043
▁partido	-10.3047
▁ur	-10.3047
▁arandu	-10.305
▁oikó	-10.3051
▁cherehe	-10.3051
▁riku	-10.3052
▁Yachay	-10.3052
▁kuska	-10.3058
niy	-10.3064
▁vemos	-10.3064
▁Au	-10.3068
97	-10.307
▁iko	-10.3077
▁pachaman	-10.3081
▁Sus	-10.3084
▁escribir	-10.3091
81	-10.3092
toria	-10.3096
mara	-10.3098
ze	-10.3099
stri	-10.3099
▁esperar	-10.3117
▁rec	-10.3119
cita	-10.3123
51	-10.3126
▁CÁNTIC	-10.3127
▁partir	-10.313
▁actividad	-10.313
2.	-10.3131
CE	-10.3139
▁Estas	-10.3142
▁iqui	-10.3144
▁lája	-10.3147
▁enviar	-10.3152
kuru	-10.3152
▁libros	-10.3155
▁Jahecha	-10.3157
kota	-10.316
▁9).	-10.3165
▁darle	-10.3167
▁ñoqa	-10.3171
▁evento	-10.3184
▁enseñanza	-10.3185
▁celebra	-10.3189
pens	-10.319
ph	-10.3195
hekombo	-10.3195
ñó	-10.3197
▁oporandu	-10.32
▁entrar	-10.3201
▁ñanemo	-10.3202
zu	-10.3208
▁Mario	-10.3209
txa	-10.3212
wé	-10.3213
listli	-10.3213
▁Cua	-10.3216
▁marandurenda	-10.3217
▁Jawiranaka	-10.322
japóramo	-10.3224
▁cara	-10.3226
pata	-10.3228
▁tuichaiterei	-10.3228
▁yanqa	-10.3229
▁pastor	-10.3242
91	-10.3245
▁asuntos	-10.3248
▁eres	-10.3255
id	-10.326
▁Edi	-10.3261
iháicha	-10.3266
pyréva	-10.3267
tle	-10.3268
paqmi	-10.3268
Jawe	-10.3269
▁isrraelíta	-10.3272
ñá	-10.3279
cí	-10.328
run	-10.3282
▁iskayraya	-10.3284
UMI	-10.3284
▁limpia	-10.3287
ken	-10.3292
▁llevó	-10.3293
gué	-10.3297
uni	-10.3297
llas	-10.3298
-4	-10.3299
yun	-10.3303
▁ropa	-10.3312
▁organisasión	-10.3313
lito	-10.3315
75	-10.3316
▁intenta	-10.3319
▁predi	-10.3331
▁mala	-10.3335
nchikmi	-10.3336
▁ermánope	-10.3336
TI	-10.3337
raqmi	-10.3339
itéva	-10.3344
Ó	-10.3345
▁casas	-10.3347
▁López	-10.335
▁ví	-10.335
▁yati	-10.3351
▁muerto	-10.3358
Z	-10.3359
▁ángel	-10.3363
lca	-10.3364
vía	-10.3365
tlan	-10.3368
▁lograr	-10.3371
▁kasqan	-10.3372
▁fil	-10.3372
:14).	-10.3372
▁contesta	-10.3373
entes	-10.3373
▁indígenas	-10.3374
▁especialmente	-10.3377
riy	-10.3385
”?	-10.3386
▁6:1	-10.3386
▁habrá	-10.3391
▁explicó	-10.3392
▁puruhára	-10.3392
▁alimenta	-10.3397
erto	-10.3402
▁rembi	-10.3402
rco	-10.3407
▁septiembre	-10.3408
ben	-10.3416
▁Antes	-10.3417
▁12).	-10.342
▁Justicia	-10.3423
▁ypy	-10.343
▁pidió	-10.343
▁boca	-10.3432
▁emo	-10.3436
▁meni	-10.344
▁biblia	-10.3442
▁koshi	-10.3443
mozilla	-10.345
▁ó	-10.345
▁reheve	-10.3457
mal	-10.3457
dí	-10.3458
▁Ndaikatúi	-10.3458
eros	-10.3461
quí	-10.3461
▁ohechávo	-10.3462
nankumanta	-10.3464
▁ejército	-10.3471
▁etiqueta	-10.3471
rdi	-10.3474
liz	-10.3475
▁Europa	-10.3476
INEI	-10.3476
58	-10.3477
▁activa	-10.348
38	-10.348
Ilustración	-10.3482
▁errores	-10.3489
▁blanco	-10.3492
▁guarani	-10.3493
chkarqa	-10.3495
▁walt	-10.3495
ikuaá	-10.3504
&	-10.3511
mongu	-10.3519
▁deseos	-10.352
CI	-10.3522
adas	-10.3523
▁1933	-10.3528
▁misericordia	-10.3529
▁yvyporakuérape	-10.3533
Ehecha	-10.3534
wanpas	-10.3538
▁yanaparqa	-10.3543
▁familiar	-10.3546
▁Voices	-10.3551
ehára	-10.3552
▁produce	-10.3556
▁veve	-10.3561
▁construcción	-10.3561
▁Pukyu	-10.3561
▁sentía	-10.3562
▁investigación	-10.3566
▁pertenece	-10.3567
▁empezó	-10.3567
▁enseñanzas	-10.3568
▁oguerohory	-10.357
llay	-10.3572
▁privilegio	-10.3572
▁Cuerpo	-10.3572
▁rama	-10.3577
▁Unión	-10.3578
▁usuarios	-10.358
▁población	-10.3583
▁Ellos	-10.3583
68	-10.3585
▁apoya	-10.3585
▁manda	-10.3589
rió	-10.3591
41	-10.3594
ólogo	-10.3595
▁kóva	-10.3596
▁ñaaprende	-10.3596
▁Del	-10.3599
▁pantalla	-10.36
▁maneras	-10.3608
▁qarqan	-10.361
77	-10.3616
▁ostudia	-10.3617
▁necesaria	-10.362
▁Hulyan	-10.3622
94	-10.3622
85	-10.3624
▁miles	-10.3625
Isaías	-10.3628
76	-10.3633
▁pé	-10.3636
▁González	-10.3642
írõ	-10.3644
moherakuã	-10.3645
▁resulta	-10.3645
pax	-10.3646
He	-10.3646
▁necesitamos	-10.3655
▁paypa	-10.3656
▁5).	-10.3659
the	-10.3662
▁pena	-10.3663
▁judío	-10.3663
▁kasqankuta	-10.3668
▁Hatun	-10.367
▁resultados	-10.3674
▁38	-10.3675
▁idióma	-10.3676
▁Gra	-10.3679
▁pekádo	-10.3685
▁Nato	-10.3689
kopi	-10.3689
▁lenguaje	-10.369
rak	-10.369
▁proféta	-10.3696
▁ES	-10.3716
▁yaku	-10.3723
▁apnaq	-10.3724
▁Amo	-10.3724
▁ñañembo	-10.3728
▁campaña	-10.3728
▁Warmi	-10.3729
▁Nuestro	-10.373
▁mejorar	-10.373
ỹme	-10.3733
▁maton	-10.3733
▁función	-10.3734
segi	-10.3737
▁jainxon	-10.374
▁importa	-10.3742
▁verdaderos	-10.3744
▁hukmanya	-10.3746
fect	-10.3748
▁llegaron	-10.3752
://	-10.3756
SE	-10.3758
kiwa	-10.3763
▁munarqa	-10.3764
▁omenda	-10.3765
▁tomó	-10.3768
IN	-10.3772
▁nete	-10.3772
▁impulsa	-10.3772
▁Primero	-10.3773
▁blog	-10.3773
hẽ	-10.3773
meh	-10.3782
▁Instituto	-10.3783
▁dé	-10.3786
▁cuidar	-10.3789
epuru	-10.3791
▁fija	-10.3791
▁circunstancias	-10.3794
▁Bibliaqa	-10.3795
▁kaptinqa	-10.3795
▁contraseña	-10.3795
04	-10.3796
▁distritum	-10.3801
▁peces	-10.3802
▁grupos	-10.3803
▁menor	-10.3803
▁killa	-10.3803
▁Wikimedia	-10.3805
▁felicidad	-10.3805
92	-10.3815
▁Reyes	-10.3815
cie	-10.3817
▁acompaña	-10.3818
tana	-10.382
▁ndaikatumo	-10.3821
▁Hua	-10.3822
▁Sha	-10.3829
▁obstante	-10.3832
itereí	-10.3832
arandu	-10.3833
▁Pay	-10.3841
▁proporciona	-10.3841
▁inti	-10.3847
▁demostró	-10.3851
▁arte	-10.3852
veha	-10.3852
CO	-10.3853
▁oservíva	-10.3855
▁diferente	-10.3857
▁yachachisqan	-10.3857
MBA	-10.386
▁acción	-10.3862
▁”?	-10.3864
▁cosecha	-10.3865
▁situaciones	-10.3871
▁23:	-10.3879
▁wañuchi	-10.3881
▁PÁGINA	-10.3883
▁1941	-10.3885
▁oĩramo	-10.3887
CA	-10.3898
LO	-10.3901
59	-10.3902
▁bautiza	-10.3904
▁Francia	-10.391
▁Cal	-10.3912
▁omombarete	-10.3915
kanwe	-10.3916
Lea	-10.3916
nero	-10.3922
▁Ndo	-10.3925
▁energía	-10.3926
TU	-10.3928
▁chhasku	-10.3932
▁fiscal	-10.3932
—	-10.3935
▁anda	-10.3936
▁vale	-10.3936
▁servidor	-10.3937
▁Twitter	-10.3937
▁siervokuéra	-10.3947
▁pide	-10.3953
▁6,	-10.3957
▁limita	-10.3958
iñimportantevéva	-10.3959
▁omendáva	-10.3959
▁jaton	-10.396
▁13.	-10.3961
oma	-10.397
kaya	-10.3975
yana	-10.3977
spanchikqa	-10.3979
▁retã	-10.3985
kói	-10.3986
▁título	-10.3987
▁fo	-10.3991
▁Taytan	-10.3992
▁watamanta	-10.3993
▁yanapawasun	-10.3994
▁sasachakuykuna	-10.3994
úta	-10.3994
tener	-10.4002
Col	-10.4002
▁Internacional	-10.4004
ẽta	-10.4004
▁difíciles	-10.4009
hendú	-10.4009
▁preguntó	-10.4009
▁Kunan	-10.4012
▁escribe	-10.4015
nkichik	-10.4018
▁ojuka	-10.4018
▁ñantende	-10.4021
▁tapukuy	-10.4023
▁noticia	-10.4025
▁siervo	-10.4026
▁ocasiones	-10.4032
manda	-10.4033
▁violencia	-10.4038
cor	-10.4038
▁qha	-10.4042
shin	-10.4043
mbosako	-10.4044
▁tuvakuéra	-10.4045
▁aklla	-10.4045
zque	-10.4046
porandu	-10.4048
▁parábola	-10.4049
▁Ur	-10.4049
▁ventana	-10.4051
▁familias	-10.4057
ñemano	-10.4057
▁arriba	-10.406
▁tembiguái	-10.406
javy	-10.406
mbotuicha	-10.4063
▁reñe	-10.4064
▁excelente	-10.4065
▁mombyry	-10.4066
▁way	-10.4067
▁8).	-10.4074
▁oguerekóva	-10.4074
pur	-10.4077
▁imbarete	-10.4088
▁Nos	-10.4092
▁humildad	-10.4094
▁prekursór	-10.4094
▁espacio	-10.4095
ON	-10.4095
▁servísiope	-10.4096
▁identifica	-10.4099
▁chayqa	-10.4103
▁Guerra	-10.4105
▁hinaspapas	-10.4105
rgen	-10.4108
▁vol	-10.4114
▁suelo	-10.4117
4;	-10.4123
▁decía	-10.4123
ñataq	-10.4125
bin	-10.4126
▁disfrut	-10.4131
▁curso	-10.4134
▁tarinki	-10.4135
grade	-10.4139
▁Tes	-10.414
Esta	-10.4141
▁porãiterei	-10.4142
zqui	-10.4143
45	-10.4145
▁té	-10.4147
bel	-10.4147
▁director	-10.4149
▁pype	-10.415
▁VI	-10.4153
Lo	-10.4155
▁romano	-10.4155
waya	-10.4167
▁jaweki	-10.4169
llos	-10.4169
▁téxto	-10.4173
▁resto	-10.4174
glo	-10.4179
thi	-10.4181
▁servicios	-10.4182
▁Global	-10.4184
▁temor	-10.4185
tlā	-10.4191
chari	-10.4194
porãi	-10.4195
▁omoakãva	-10.4195
▁estará	-10.4199
eapohára	-10.4201
▁rekove	-10.4206
vid	-10.4207
▁Mundial	-10.4207
▁Pachapi	-10.4212
03	-10.4218
chus	-10.4221
fí	-10.4223
▁comun	-10.4227
▁opo	-10.4227
▁precio	-10.4228
▁rrevísta	-10.423
jaleemína	-10.4232
▁carrera	-10.4236
ptinmi	-10.424
▁Achka	-10.4244
▁encuentran	-10.4245
▁falsa	-10.4247
▁pensamientos	-10.4249
▁contranpi	-10.4252
bli	-10.4253
▁dicha	-10.4258
74	-10.4258
▁aprendido	-10.4264
▁baja	-10.4265
▁Paul	-10.4268
▁compara	-10.4269
▁tribulación	-10.427
▁chaymanta	-10.4273
▁2001	-10.4273
VI	-10.4274
▁Educación	-10.4276
▁animal	-10.428
▁Tetãvore	-10.4281
▁ñandepy	-10.4288
eichagua	-10.429
▁ryepýpe	-10.4293
▁cumplimiento	-10.4295
▁costa	-10.4295
háva	-10.4295
▁estudiantes	-10.4296
▁42	-10.4298
gueraha	-10.43
qha	-10.4301
▁llaqtan	-10.4301
▁imanasqa	-10.4301
rito	-10.4303
▁iporãvéva	-10.4309
tái	-10.431
▁obliga	-10.4313
46	-10.4313
▁original	-10.4318
-1	-10.432
▁wiña	-10.4323
▁oga	-10.4326
▁Abraham	-10.4327
tic	-10.4329
▁16).	-10.4331
▁cen	-10.4332
kunanpaq	-10.4335
▁ñakari	-10.4336
páva	-10.4339
▁kiti	-10.434
òq	-10.4341
cept	-10.4343
▁25:	-10.4348
▁viva	-10.4354
warqa	-10.4356
▁raki	-10.436
kt	-10.4362
▁rápido	-10.4362
84	-10.4366
▁entra	-10.4368
▁hacía	-10.437
▁manq	-10.4372
▁apostol	-10.4373
▁quieren	-10.4374
▁firma	-10.4375
pytu	-10.4377
▁relaciones	-10.438
▁tro	-10.438
▁prójimo	-10.4385
cri	-10.4386
rire	-10.4389
▁qepa	-10.4392
▁walja	-10.4397
▁multilingüe	-10.4397
▁ojevautisa	-10.44
▁normal	-10.4401
gueru	-10.4401
▁Bibliam	-10.4403
▁chaypi	-10.4406
▁local	-10.4406
▁líder	-10.4407
Ro	-10.4412
▁crear	-10.4418
▁11).	-10.4419
▁termina	-10.4431
▁apañuãi	-10.4432
cional	-10.4433
▁oipotáva	-10.4438
▁yvága	-10.4442
▁habita	-10.4444
-18	-10.4444
▁personalidad	-10.4444
Está	-10.4447
▁Py	-10.4451
▁enfermo	-10.4456
▁lleno	-10.4457
▁China	-10.4457
tun	-10.4458
▁opytáva	-10.4458
▁uñja	-10.4462
▁Moises	-10.4462
bro	-10.4463
▁rojo	-10.4464
▁ohundi	-10.4467
MB	-10.4469
93	-10.447
▁upearã	-10.4472
▁ñandutípe	-10.4473
Romanos	-10.4475
▁karu	-10.4477
▁omoirũ	-10.4482
57	-10.4486
mboty	-10.4488
media	-10.4488
▁oisãmbyhy	-10.4491
ij	-10.4493
▁jiwa	-10.4494
▁ayudan	-10.4495
kã	-10.4499
ple	-10.4501
▁Alcaraz	-10.4502
resa	-10.4502
▁tiyan	-10.4503
▁pescado	-10.4504
Gál	-10.4505
▁podrían	-10.4506
▁chinkachi	-10.4507
▁engaña	-10.4509
▁Debe	-10.451
▁actualidad	-10.4511
my	-10.4511
▁inicio	-10.4514
ýre	-10.4515
▁gu	-10.4516
maña	-10.4518
▁8,	-10.4518
▁espiritualmente	-10.4519
▁ñaha	-10.4527
▁quedar	-10.453
▁kayna	-10.4531
poro	-10.4532
oni	-10.4533
▁Ndaipóri	-10.4536
▁amígo	-10.4537
predika	-10.4541
▁pytyvõ	-10.4541
▁senador	-10.4544
▁chaynata	-10.4548
▁kantun	-10.4548
▁noticias	-10.455
hto	-10.4559
▁ñaikotevẽ	-10.4561
▁anuncia	-10.4567
mombarete	-10.457
ndí	-10.4572
▁chacha	-10.4572
xca	-10.4573
▁pasaje	-10.4576
▁Bra	-10.4577
▁hebreo	-10.4579
▁ojehe	-10.4581
qnin	-10.4581
▁(5	-10.4583
:7).	-10.4585
48	-10.4585
96	-10.4587
▁ojei	-10.4591
▁quedó	-10.4591
moheñói	-10.4591
▁celo	-10.4594
▁wiñay	-10.4594
▁aguas	-10.4595
▁Ejecutivo	-10.4596
apýpe	-10.4603
▁ayudarnos	-10.4606
▁podrán	-10.4606
▁mesko	-10.4614
Ku	-10.4617
inei	-10.4618
▁2006	-10.4618
▁anti	-10.4619
▁emplea	-10.4621
tieron	-10.4621
▁maran	-10.4624
▁tuvieron	-10.4632
▁Joapykuéra	-10.4632
▁mborayhu	-10.4633
juhú	-10.4633
▁pelea	-10.4636
5;	-10.464
winaka	-10.4642
arive	-10.4642
▁Mundo	-10.4647
▁veremos	-10.4648
ND	-10.4654
▁thu	-10.4655
del	-10.4657
qku	-10.4658
▁Testígo	-10.4662
▁Jorge	-10.4662
ninpi	-10.4667
▁kapítulo	-10.4668
▁atipana	-10.4668
▁pata	-10.4673
xto	-10.4676
▁decidido	-10.468
▁actos	-10.4681
Jer	-10.4685
▁opinión	-10.4686
▁Chile	-10.4686
▁eipuru	-10.4686
▁indihina	-10.4686
▁divino	-10.4686
▁disciplina	-10.4687
masi	-10.4689
2;	-10.469
▁Gobernante	-10.4692
52	-10.4693
Mo	-10.4693
▁dirige	-10.4693
▁mitãkuña	-10.4698
▁privada	-10.4698
▁37:	-10.4699
▁dirigi	-10.47
Ka	-10.4704
mbohasa	-10.4709
kat	-10.4714
▁América	-10.4716
LA	-10.4717
7;	-10.4718
dieron	-10.4719
▁jareko	-10.4721
▁65	-10.4724
▁destaca	-10.4728
▁ojejuhu	-10.4728
nchikpi	-10.4729
▁fecha	-10.4729
▁Apo	-10.473
▁ciento	-10.4736
▁piedra	-10.4737
▁advertencia	-10.474
▁Pacha	-10.4743
▁Aquel	-10.4745
▁20).	-10.4754
▁ije	-10.4756
▁36	-10.4758
▁3).	-10.4758
pyahu	-10.4759
▁chaqf	-10.476
▁juez	-10.4761
izado	-10.4766
tene	-10.4766
▁kawsaq	-10.4768
▁opensáva	-10.4769
▁llamkay	-10.477
▁34	-10.4771
▁significado	-10.4774
ábamos	-10.4775
▁segura	-10.4778
▁Centro	-10.4781
▁demuestra	-10.4785
pach	-10.4786
▁precursora	-10.4786
▁traváho	-10.4788
chirqa	-10.4794
▁2005	-10.4805
▁tapu	-10.4807
▁media	-10.4811
ẽvo	-10.4817
▁senen	-10.4818
Cuánto	-10.4822
EN	-10.4822
jer	-10.4823
▁pukukue	-10.4831
DI	-10.4834
54	-10.4836
idades	-10.4836
▁Sur	-10.4838
▁imakuna	-10.4838
▁árboles	-10.4839
▁kitilli	-10.4839
Al	-10.484
▁hospital	-10.4842
▁materiales	-10.4845
▁runakunaman	-10.4854
▁PURAHÉI	-10.4854
▁sirviente	-10.4854
pta	-10.4856
▁Mä	-10.487
▁80	-10.4872
▁ñanemandu	-10.4873
▁ohesa	-10.4873
▁propios	-10.4874
Ecl	-10.4875
▁registro	-10.4879
▁gérra	-10.4879
kati	-10.4879
▁enemigo	-10.4881
▁esfuerzos	-10.4883
▁nisqan	-10.4884
tibo	-10.4886
3-	-10.4888
unchaw	-10.4894
▁siquiera	-10.4895
gente	-10.4898
erta	-10.4906
▁tarea	-10.4907
rup	-10.4909
ñachu	-10.4911
▁extra	-10.4911
pura	-10.4912
▁hamu	-10.4912
▁tekotevẽha	-10.4912
▁Tribunal	-10.4915
▁Tukuy	-10.4916
▁yaqha	-10.4918
▁comunes	-10.4923
▁diciendo	-10.4925
▁acusa	-10.4926
▁oído	-10.4927
▁ompa	-10.4927
niku	-10.4933
▁bíblica	-10.4933
▁Nuestra	-10.4934
▁imemby	-10.4934
▁dieron	-10.4938
▁cuál	-10.4942
gí	-10.4947
▁bienes	-10.4948
chaku	-10.4949
▁Web	-10.4953
rachi	-10.4956
ína	-10.4962
07	-10.4963
▁jahayhu	-10.4964
▁garantiza	-10.4964
▁encontrado	-10.4965
▁paciente	-10.497
▁puévlo	-10.4971
▁viru	-10.4972
▁familiares	-10.4974
rente	-10.4974
▁orrepresenta	-10.4977
awi	-10.4981
raykum	-10.4981
lada	-10.4981
▁hákatu	-10.4983
▁adora	-10.4987
▁Gracias	-10.4987
▁creer	-10.4988
pone	-10.499
▁síglo	-10.4991
▁Martin	-10.4992
▁ejerce	-10.4996
jos	-10.5
ciendo	-10.5
ced	-10.5001
ografía	-10.5007
▁premio	-10.5008
lina	-10.5009
▁nuevos	-10.501
tín	-10.5012
▁ñahesa	-10.5012
mboguejy	-10.5013
▁isa	-10.5013
▁Consejo	-10.5014
▁kanapaq	-10.5015
▁hembipota	-10.502
▁mandato	-10.5025
▁Guasu	-10.5025
▁qonqa	-10.5025
▁http	-10.5027
87	-10.5027
nama	-10.5029
▁ok	-10.503
▁calidad	-10.503
▁18).	-10.5032
▁departamento	-10.5032
aporã	-10.5033
culo	-10.5034
rentsi	-10.5036
▁qallaykurqa	-10.5036
▁pur	-10.5037
▁estén	-10.5039
damente	-10.504
sqaykita	-10.5042
▁yacharqa	-10.5043
▁ī	-10.5044
▁Upémarõ	-10.5045
▁recuadro	-10.5045
ára	-10.5046
▁jasypo	-10.5046
▁testigonkuna	-10.5047
cimiento	-10.5049
▁ahí	-10.505
▁imata	-10.505
▁juzga	-10.5052
hí	-10.5053
▁dijeron	-10.5055
▁culpa	-10.5056
▁cá	-10.5056
▁jahupyty	-10.5059
▁malas	-10.5062
▁oikotevẽva	-10.5066
▁confirma	-10.5073
▁bendición	-10.5076
▁apoyar	-10.5077
▁oguero	-10.5082
lmente	-10.5086
▁permanecer	-10.5087
ambue	-10.5088
▁Comisión	-10.5088
▁adelante	-10.5088
nkunata	-10.5091
▁Cho	-10.5092
▁chakra	-10.5095
▁mexica	-10.5106
▁indi	-10.5117
pot	-10.5122
▁Pla	-10.5122
▁herramientas	-10.5123
▁famíliape	-10.5124
▁ijerovia	-10.5127
ud	-10.513
▁Ezequiel	-10.5132
ster	-10.5137
▁cristianas	-10.5138
▁responsable	-10.5138
▁organiza	-10.514
▁niq	-10.5144
▁música	-10.5144
▁wal	-10.5145
güe	-10.515
▁peẽ	-10.5151
tía	-10.5153
▁ukanaka	-10.5156
▁recompensa	-10.5157
▁pyahúpe	-10.5157
▁jaservi	-10.5158
▁enviado	-10.5163
mbotavy	-10.5163
tika	-10.5163
▁valora	-10.5165
lga	-10.517
▁yvate	-10.5173
▁nombres	-10.5177
▁churin	-10.5179
▁itúva	-10.5182
▁integra	-10.5187
▁2018	-10.5187
▁llegue	-10.5188
ipota	-10.5189
kunataqa	-10.519
▁rreunión	-10.5195
▁allicha	-10.5195
▁aski	-10.5196
▁Poder	-10.5198
▁soberanía	-10.5201
boki	-10.5203
taj	-10.5206
▁sacerdotes	-10.5207
teo	-10.5212
▁Jehovágui	-10.5213
▁serviqninkuna	-10.522
▁toca	-10.5221
▁lawpi	-10.5223
nankuta	-10.5223
▁ruwasqan	-10.5226
▁ruraq	-10.523
▁nacimiento	-10.523
úi	-10.5231
▁témplo	-10.5232
82	-10.5233
▁Otra	-10.5236
▁oimeraẽ	-10.5239
56	-10.5239
pha	-10.524
▁Ari	-10.5241
▁fondo	-10.5248
▁física	-10.5251
▁alcanzar	-10.5252
zado	-10.5257
▁tí	-10.5262
▁asistir	-10.5262
▁the	-10.5263
mopotĩ	-10.5265
ona	-10.5267
▁contraseñas	-10.5269
63	-10.527
▁Yma	-10.5275
▁Mil	-10.5276
▁modelo	-10.5283
hor	-10.5285
▁Papa	-10.5285
▁matar	-10.5295
ciente	-10.5298
korosã	-10.53
mbyaty	-10.5301
ẽre	-10.5301
▁Sant	-10.5301
riki	-10.5304
1-	-10.5305
▁Ed	-10.532
guera	-10.5328
▁rógape	-10.5328
pochy	-10.5336
tta	-10.5339
▁Luc	-10.534
vin	-10.534
▁upérõ	-10.534
▁esperaba	-10.5341
▁Políticas	-10.5342
▁rre	-10.5343
▁sama	-10.5344
ptinchikqa	-10.5345
ÉPA	-10.5346
▁tawa	-10.5347
▁Judas	-10.5349
▁×	-10.5351
▁registra	-10.5353
▁cierta	-10.5353
NE	-10.5357
▁única	-10.536
▁implica	-10.5361
▁aumenta	-10.5366
▁alaba	-10.537
mari	-10.5373
▁promesas	-10.5375
▁Fernando	-10.5388
▁envió	-10.5388
qkunaqa	-10.5389
pal	-10.5391
▁Cada	-10.5393
▁kaymantam	-10.5394
QA	-10.5395
▁walla	-10.5396
▁jatíbi	-10.5398
▁qhapaq	-10.5401
spam	-10.5403
teca	-10.5406
tx	-10.5406
lación	-10.5406
▁Jahechaháicha	-10.5406
▁kama	-10.5408
▁esperánsa	-10.5411
▁abierto	-10.5411
▁ypan	-10.5414
figur	-10.5414
sign	-10.5417
▁jaka	-10.542
íramo	-10.5424
▁método	-10.543
▁heñói	-10.5431
▁runam	-10.5432
nakaw	-10.5432
▁Allí	-10.5433
▁xobo	-10.5436
teni	-10.5436
▁comunica	-10.544
▁Iporã	-10.5449
▁yanapt	-10.545
gri	-10.5452
ẽha	-10.5452
qkunata	-10.5454
RES	-10.5455
▁monte	-10.5456
▁formas	-10.5456
▁lectura	-10.5456
▁cita	-10.5457
▁temas	-10.5457
osa	-10.5457
▁hembi	-10.5458
uro	-10.546
▁Martín	-10.5464
▁jejavy	-10.5465
rqan	-10.5475
▁imágenes	-10.5475
sol	-10.5475
▁Traducción	-10.5476
▁hamuq	-10.5477
▁suyukunata	-10.5477
tépe	-10.5481
▁antigua	-10.5482
úvo	-10.5483
chkaspa	-10.5486
64	-10.5486
▁cuyo	-10.5488
▁waqaycha	-10.5489
▁ichupe	-10.5489
qmi	-10.5492
terna	-10.5493
▁yoiai	-10.5493
43	-10.5497
kuépe	-10.5502
▁Rut	-10.5504
▁papá	-10.5509
▁pies	-10.5515
lado	-10.5517
chó	-10.5517
▁jupax	-10.5522
▁religiosos	-10.5527
▁noviembre	-10.5527
▁uyarinakuna	-10.5528
▁estás	-10.5532
▁tri	-10.5532
▁dispositivos	-10.5539
▁oj	-10.5539
▁aprendemos	-10.554
xu	-10.5543
▁nace	-10.5544
▁dispositivo	-10.5548
42	-10.555
visa	-10.5553
▁nderehe	-10.5559
▁ohasáva	-10.5561
lida	-10.5562
▁casaraku	-10.5564
brandShortName	-10.5566
▁Bibliamanta	-10.5566
HE	-10.557
▁ejecuta	-10.5573
▁área	-10.5575
▁llamó	-10.558
desidi	-10.5584
▁teléfono	-10.5586
▁herencia	-10.5586
▁alegra	-10.5588
yamai	-10.5589
▁Oiméne	-10.5589
mayá	-10.559
▁Eipuru	-10.5593
▁dedicar	-10.5593
Isa	-10.5593
nkuna	-10.5595
▁enseñó	-10.5599
▁flor	-10.5601
aria	-10.5603
▁ñambohovái	-10.5604
oc	-10.5605
▁áñore	-10.5606
kata	-10.5606
▁ifamíliape	-10.5607
kunku	-10.561
scripción	-10.5612
rista	-10.5613
▁llaki	-10.5615
▁oimo	-10.5619
▁contacto	-10.5619
▁nd	-10.5624
lón	-10.5624
▁Hasta	-10.5625
úramo	-10.5625
▁26:	-10.5625
hechávo	-10.5627
▁indígena	-10.5628
▁descarga	-10.5629
MI	-10.563
▁reacciona	-10.5632
▁creen	-10.5632
▁Corte	-10.5633
ane	-10.5636
KUNA	-10.5636
▁ikaxbi	-10.5637
râ	-10.5637
▁chaq	-10.564
ún	-10.564
▁meve	-10.5647
▁quieres	-10.565
▁materia	-10.565
huatl	-10.565
▁#1	-10.565
▁ñanderayhu	-10.5651
▁huchalliku	-10.5652
▁legal	-10.5655
▁metros	-10.5658
▁edición	-10.5665
▁bautismo	-10.5665
▁mahtlācxihuitl	-10.5665
poriahuvereko	-10.5668
▁responde	-10.567
▁protesta	-10.5671
ración	-10.5675
▁acto	-10.568
▁encanta	-10.5684
▁párte	-10.5686
▁“[	-10.5691
▁diputado	-10.5691
▁alimentos	-10.5692
:23).	-10.5695
sivo	-10.5698
▁respondió	-10.57
▁tata	-10.5701
▁pampacha	-10.5702
mática	-10.5709
▁asunto	-10.571
say	-10.5713
▁já	-10.5714
fri	-10.5715
▁yanapan	-10.5716
éramos	-10.5717
▁rimanku	-10.5717
▁Katuete	-10.5718
▁perdido	-10.5718
▁nokon	-10.5724
AL	-10.5725
Ya	-10.5727
▁eje	-10.5728
▁aikuaa	-10.5732
▁tha	-10.5733
▁máva	-10.5734
–	-10.5736
▁allinmi	-10.5742
▁Efesios	-10.5743
▁Anti	-10.5747
sunchu	-10.5749
JE	-10.5751
land	-10.5752
▁oku	-10.5755
año	-10.5756
▁pedir	-10.5756
▁reconoce	-10.5756
▁ojoko	-10.5756
:18).	-10.5757
▁tendría	-10.5758
tanaka	-10.5759
▁taqi	-10.576
mple	-10.5774
kwa	-10.5777
mbia	-10.5777
▁García	-10.5778
▁Grande	-10.5782
rden	-10.5783
món	-10.5784
▁encontró	-10.5784
mboyke	-10.5786
▁elección	-10.5786
tsu	-10.579
▁podían	-10.5792
▁paykunaqa	-10.5795
parti	-10.5798
▁perdonar	-10.5802
▁ciudadanos	-10.5804
sina	-10.5806
65	-10.581
mbogue	-10.5811
▁profundo	-10.5811
tiendo	-10.5812
▁and	-10.5812
▁Paykunaqa	-10.5813
▁resolver	-10.5814
▁eike	-10.5819
▁jaqinaka	-10.5824
▁ina	-10.5828
yru	-10.5829
▁convirtió	-10.5831
▁Itúva	-10.5831
míva	-10.5833
bor	-10.5834
▁haz	-10.5837
▁Jesusta	-10.5838
▁lluvia	-10.5838
▁expresa	-10.5843
▁ijespíritu	-10.5844
▁pequeños	-10.5848
rurqaku	-10.5852
▁maestro	-10.5857
amiento	-10.5862
▁mesa	-10.5863
▁década	-10.5865
nchikta	-10.5868
quia	-10.587
▁omboyke	-10.5873
▁navegación	-10.5874
▁explicar	-10.5881
▁concentra	-10.5886
▁Lee	-10.5887
tada	-10.5887
spaykiqa	-10.589
▁orre	-10.5892
▁iñarandu	-10.5898
▁maki	-10.59
Para	-10.59
dre	-10.5904
▁tuqi	-10.5905
▁kaptin	-10.5911
▁reserva	-10.5912
▁wasin	-10.5913
ichagua	-10.5913
manpas	-10.5915
▁sar	-10.5917
▁ehecha	-10.5922
▁embo	-10.5923
▁plantas	-10.5924
chkaq	-10.5928
▁estudios	-10.5929
▁misión	-10.5932
ché	-10.5932
▁conexión	-10.5932
▁sentimos	-10.5932
▁prohibi	-10.5933
▁ohóva	-10.5933
▁32:	-10.5939
▁vende	-10.5941
wananchikpaq	-10.5941
▁Paymi	-10.5943
▁tales	-10.5943
▁puvlikasión	-10.5946
▁AL	-10.5949
▁omoakã	-10.5949
aprende	-10.595
▁uksan	-10.5951
▁SSL	-10.5952
▁posición	-10.5953
▁Ñandejáragui	-10.5953
mbra	-10.5954
▁líderes	-10.5954
▁larga	-10.5958
8;	-10.5959
▁tyi	-10.5962
iano	-10.5966
▁rodea	-10.5967
▁Dis	-10.5968
▁religion	-10.5969
▁37	-10.5972
▁porãva	-10.5975
kambia	-10.5979
▁pejapo	-10.598
▁puedan	-10.5981
▁ambos	-10.5982
tlali	-10.5983
▁distritupi	-10.5984
china	-10.5984
▁productos	-10.5988
▁canta	-10.5989
▁1:2	-10.599
▁establecido	-10.5993
ỹi	-10.5994
▁Dioswan	-10.5995
▁Jan	-10.5996
px	-10.5997
Yo	-10.5998
▁oye	-10.6
▁informasión	-10.6003
▁públicos	-10.6004
▁rechaza	-10.6006
▁juego	-10.6008
▁Pues	-10.6008
▁Shi	-10.6009
▁preparar	-10.6011
ain	-10.6014
▁guar	-10.6014
▁claramente	-10.6019
▁2000	-10.602
Co	-10.602
▁japu	-10.6021
rend	-10.6022
▁nayriri	-10.6023
▁saben	-10.6023
▁oñorairõ	-10.6024
▁oúvape	-10.6025
▁Jaikuaa	-10.6025
▁ÑA	-10.6026
▁hor	-10.6031
ẽrendúva	-10.6033
▁solicitud	-10.6034
▁conseguir	-10.6035
paj	-10.6035
▁yayku	-10.6036
▁post	-10.6039
vépe	-10.604
▁candidato	-10.6041
gla	-10.6047
▁Evangelio	-10.6048
Ẽ	-10.6048
53	-10.6052
▁caballo	-10.6054
▁paraguayo	-10.6055
iporavo	-10.6057
quito	-10.6059
▁justos	-10.606
▁90	-10.6066
▁manchaku	-10.6066
▁ciertamente	-10.6068
▁añónte	-10.6069
▁regla	-10.6069
▁convencido	-10.6069
▁doctor	-10.6071
▁óra	-10.6074
▁oaprende	-10.6076
▁Puerto	-10.6077
▁Alemania	-10.6082
▁material	-10.6082
▁perro	-10.609
66	-10.6091
tsiri	-10.6094
▁Ob	-10.6096
▁-"	-10.6096
▁tiya	-10.6103
▁é	-10.6109
="%(	-10.611
▁cuarto	-10.611
▁rembireko	-10.6118
gno	-10.6122
▁kuñakarai	-10.6124
▁Ikwadur	-10.613
pul	-10.6132
▁sasachaku	-10.6132
▁meran	-10.6132
▁Mor	-10.6134
▁retãme	-10.6137
árõ	-10.6139
▁ojogua	-10.6144
rico	-10.6147
▁kó	-10.6148
▁debía	-10.6155
▁sacrificios	-10.6158
chisqa	-10.6159
▁ere	-10.616
▁consecuencias	-10.6161
▁investiga	-10.6164
▁ndi	-10.6165
tió	-10.6171
amp	-10.6173
▁colabora	-10.6178
▁municipales	-10.6179
leg	-10.6184
▁IV	-10.6185
HINA	-10.6186
▁hubo	-10.6187
▁ancianokuna	-10.6188
▁cura	-10.6189
▁jani	-10.6189
▁congregacion	-10.6192
▁civil	-10.6194
▁apu	-10.6196
▁cunta	-10.6199
ncho	-10.6203
Mávapa	-10.6208
guerovia	-10.6208
seha	-10.621
▁bosque	-10.6214
72	-10.6215
▁publica	-10.6217
▁jene	-10.6218
▁raka	-10.6221
▁reyes	-10.6222
▁copia	-10.6225
▁Jesusmi	-10.6227
namanta	-10.6228
▁duro	-10.6231
▁iban	-10.6232
▁publicado	-10.6235
poravo	-10.6236
▁suele	-10.6237
▁siguen	-10.624
sqayku	-10.624
▁ndojapói	-10.6242
CU	-10.6242
éra	-10.6244
NO	-10.6248
▁qi	-10.6248
tlahto	-10.625
▁naturaleza	-10.6256
▁Claro	-10.6265
yay	-10.6269
▁Indihina	-10.6277
▁religiosa	-10.6277
mani	-10.6277
hágui	-10.6277
▁hapipaku	-10.6278
net	-10.6278
▁Embo	-10.6278
mbojoja	-10.6281
dón	-10.6283
tró	-10.6284
▁Yana	-10.6289
▁jadesidi	-10.6289
okápe	-10.629
▁tekorosã	-10.6292
tiro	-10.6294
▁Gal	-10.6295
▁merece	-10.6301
▁elemento	-10.6304
▁rebaño	-10.6305
▁katli	-10.6307
▁alta	-10.6307
rga	-10.6309
▁sábado	-10.6312
▁construir	-10.6312
▁ves	-10.6313
tilla	-10.6318
▁hui	-10.632
▁ypykue	-10.6321
▁rimaq	-10.6323
▁viaja	-10.6324
▁elegir	-10.6327
▁sector	-10.6329
bio	-10.6334
▁Lengua	-10.6339
▁rimaypi	-10.6341
▁cumple	-10.6342
▁jahasa	-10.6342
▁negro	-10.6343
ceso	-10.6347
▁Hinaptinqa	-10.6354
▁korasõ	-10.6354
▁Comun	-10.6354
sej	-10.6356
73	-10.6357
▁okakuaa	-10.6358
▁Alberto	-10.6358
▁saqi	-10.6359
NTE	-10.636
▁venir	-10.6364
jú	-10.6366
miénto	-10.6368
▁memoria	-10.6368
▁yachaq	-10.6371
▁_	-10.6373
▁mental	-10.6374
▁Edén	-10.6376
▁llevaba	-10.6376
mbá	-10.6378
▁simple	-10.6378
shoko	-10.6378
kuére	-10.6382
▁/1	-10.6385
huitl	-10.6387
▁perfecta	-10.6389
▁reikuaa	-10.6392
▁ken	-10.6396
▁oî	-10.6397
▁vivo	-10.6402
▁/2	-10.6403
▁conclusión	-10.6405
Sant	-10.6406
▁ejercicio	-10.6411
▁plenamente	-10.6414
▁protege	-10.6414
▁oipotaháicha	-10.6415
▁reta	-10.6419
▁empe	-10.6423
▁consuelo	-10.6425
▁Ger	-10.6426
▁Jaska	-10.6426
{	-10.6427
▁rá	-10.6428
Na	-10.6432
▁ánimo	-10.6432
ikuaávo	-10.6433
Que	-10.6437
▁vaíva	-10.6437
▁riesgo	-10.6439
eza	-10.6441
><	-10.6443
▁salvación	-10.6444
▁né	-10.6446
▁profecías	-10.6451
▁saserdóte	-10.6453
▁sueño	-10.6457
peteĩ	-10.6458
séramo	-10.646
▁aguanta	-10.646
▁1990	-10.6463
▁figura	-10.6464
ienta	-10.6465
▁llevan	-10.6467
▁piensan	-10.6469
able	-10.6469
▁correcto	-10.6469
▁medidas	-10.647
▁viento	-10.647
▁sacar	-10.6472
▁entrada	-10.6473
▁Mujer	-10.6474
▁respuestas	-10.6475
▁Wo	-10.6476
1.	-10.6476
purahéi	-10.6478
▁5+	-10.6479
▁maldad	-10.648
▁hagan	-10.6484
▁39	-10.6485
naykupaq	-10.6486
▁niman	-10.6488
▁Nunca	-10.6488
▁Diospi	-10.649
▁ofrenda	-10.649
▁tupa	-10.6494
▁India	-10.6495
invita	-10.6499
twa	-10.6503
▁kristianokuéra	-10.6503
▁graba	-10.6504
dór	-10.6505
llachu	-10.6508
:20).	-10.6509
▁mejores	-10.6512
▁redes	-10.6513
liztli	-10.6514
▁contribuye	-10.6518
▁Partido	-10.6518
▁Chaynata	-10.652
▁róga	-10.6525
▁internacional	-10.6527
▁niña	-10.6528
▁willakuq	-10.6529
▁jaska	-10.6529
▁ijehegui	-10.6532
▁precursores	-10.6532
▁Incluso	-10.6532
tivas	-10.6533
▁yvyra	-10.6534
▁Ste	-10.6537
▁abierta	-10.6547
▁nombrado	-10.6548
Su	-10.6551
▁Gar	-10.656
ler	-10.6561
▁iñakã	-10.6562
▁Aun	-10.6563
▁dia	-10.6563
▁opavavépe	-10.6566
▁yachachikuykuna	-10.6567
▁utilizar	-10.6569
rqam	-10.6569
▁continuación	-10.6572
▁Paykuna	-10.6572
este	-10.6574
▁Cultura	-10.6576
▁ninku	-10.6578
▁Thunderbird	-10.6583
▁especie	-10.6583
cara	-10.6586
ypaq	-10.6589
▁Oiko	-10.6589
▁destrucción	-10.659
sqaykichik	-10.659
▁depende	-10.659
▁archivos	-10.6592
▁ótra	-10.6592
Ani	-10.6593
ýgui	-10.6595
▁esencial	-10.6601
ekuérape	-10.6601
erechaha	-10.6604
▁iri	-10.6604
▁posibilidad	-10.6604
venida	-10.6605
▁Aníke	-10.661
▁probablemente	-10.6613
chkanku	-10.6614
▁mieme	-10.6614
▁creó	-10.6615
pero	-10.6616
▁kamachiy	-10.6619
▁porãta	-10.662
▁autor	-10.662
▁É	-10.6621
▁ñañeporandu	-10.6623
▁oc	-10.6623
▁vaya	-10.6625
▁Buenos	-10.6626
▁Chijya	-10.6626
zan	-10.6629
▁caer	-10.6633
▁oficina	-10.6633
▁omanóva	-10.6635
▁tuichakue	-10.6639
▁gobernante	-10.6639
▁Ary	-10.664
erãpa	-10.6645
▁Ladislaa	-10.6648
▁sucursal	-10.6648
ça	-10.6651
:21).	-10.6651
▁yura	-10.6653
▁aplicar	-10.6662
siya	-10.6663
▁oikuaauka	-10.6669
ñemo	-10.667
▁hojas	-10.6672
▁noA	-10.6673
▁buscando	-10.6673
paqqa	-10.6675
:22).	-10.6676
▁miku	-10.6677
▁tecnología	-10.6677
▁kasqanchikta	-10.6677
▁Punta	-10.6679
▁Silvero	-10.6684
▁arsu	-10.6684
▁jeikove	-10.6686
Wa	-10.6687
águi	-10.6688
▁Rimaq	-10.6689
mboyké	-10.6689
▁amenaza	-10.6692
▁compra	-10.6699
▁Hace	-10.6703
▁=	-10.6703
▁runapa	-10.6705
▁kayqa	-10.6707
▁contrato	-10.6708
jama	-10.6709
▁ukham	-10.671
▁eliminar	-10.6713
▁Senado	-10.6714
▁regionales	-10.6717
ẽasa	-10.6717
▁admira	-10.6721
▁castiga	-10.6721
▁deberíamos	-10.6727
▁muda	-10.6728
apoha	-10.6731
▁publicadores	-10.6732
▁visitar	-10.6733
▁estilo	-10.6733
▁waqa	-10.6734
▁domingo	-10.6736
▁Heb	-10.6741
`	-10.6741
dela	-10.6741
▁titular	-10.6743
▁Chayta	-10.6744
ent	-10.6746
▁ry	-10.675
▁Guaraní	-10.675
▁Cla	-10.6753
▁Podemos	-10.6754
▁waranqa	-10.6756
▁Aires	-10.6759
ológico	-10.6765
▁New	-10.677
vale	-10.6771
curr	-10.6777
Cuándo	-10.6781
▁qatiqninkuna	-10.6782
▁software	-10.6787
▁Vo	-10.6799
▁terminar	-10.6799
PO	-10.6799
miki	-10.6799
mbý	-10.68
▁ofrecer	-10.6801
▁Castilla	-10.6802
▁labor	-10.6802
▁seguidores	-10.6803
kero	-10.6805
▁poderoso	-10.6806
▁rit	-10.6808
▁permiso	-10.6809
▁conforme	-10.6812
gía	-10.6813
kunankupaq	-10.6813
Cuando	-10.6815
▁jehasa	-10.6815
kangy	-10.6816
▁pudiera	-10.6821
▁trabaja	-10.6824
▁conjunto	-10.6824
▁adopta	-10.6825
▁planeta	-10.6825
▁Sapa	-10.6829
▁utji	-10.6832
49	-10.6834
▁okanta	-10.6834
ñemomba	-10.6835
$	-10.6838
▁detalles	-10.6838
▁injusticia	-10.6839
▁kirika	-10.6839
▁admit	-10.684
▁Pal	-10.6843
lidad	-10.6846
presenta	-10.6847
▁clases	-10.6849
200	-10.6849
Apocalipsis	-10.6852
▁rehecha	-10.6853
▁jane	-10.6855
product	-10.6856
▁ohasava	-10.6859
tâ	-10.686
▁modific	-10.686
▁aprobación	-10.6861
▁corresponde	-10.6862
▁nayra	-10.6865
punim	-10.6866
▁viernes	-10.6869
▁Robert	-10.687
▁necesitaba	-10.6872
izada	-10.6872
▁llapan	-10.6875
▁jajapóva	-10.6876
yotl	-10.6876
▁marcha	-10.6876
▁ayvu	-10.6877
ríamos	-10.6878
▁ykére	-10.6879
▁Runa	-10.688
▁taki	-10.6881
gueropu	-10.6885
bal	-10.6887
tili	-10.6889
▁tekove	-10.6891
▁empleo	-10.6891
▁cuánto	-10.6891
ívare	-10.6896
▁propias	-10.6896
▁Nehemías	-10.6898
▁permitir	-10.6901
▁hablando	-10.6904
▁téma	-10.6907
▁SE	-10.6909
▁ipahápe	-10.691
PY	-10.6911
▁Poco	-10.6913
gna	-10.6914
yguápe	-10.6915
▁arregl	-10.6917
guata	-10.6919
▁Japón	-10.6922
▁Iñe	-10.6926
▁ñambo	-10.6926
▁sucedió	-10.6926
▁presta	-10.6928
ronki	-10.6928
▁banda	-10.6928
▁popular	-10.6928
▁policía	-10.6929
▁controla	-10.6934
▁entera	-10.6937
▁elementos	-10.6938
noxon	-10.6938
▁ojuehe	-10.6943
▁téysto	-10.6943
etereíva	-10.6944
mínte	-10.6945
▁cambiado	-10.6948
▁rérape	-10.6949
▁tenonde	-10.695
▁ndere	-10.695
06	-10.6953
▁Felipe	-10.6954
▁orekó	-10.6954
aju	-10.6955
▁aparta	-10.6957
tados	-10.696
▁Nación	-10.696
▁Upéicharamo	-10.696
▁ninka	-10.696
Gen	-10.6963
▁kundaharape	-10.6966
▁aplica	-10.6966
▁domina	-10.6968
▁pahápe	-10.6969
▁qatiqnin	-10.6975
▁enfermedades	-10.6978
guapý	-10.6978
▁declaración	-10.6982
▁marco	-10.6983
▁teki	-10.6984
siste	-10.6984
cro	-10.6985
niwa	-10.6988
▁requiere	-10.6988
▁tampoco	-10.6988
▁pira	-10.699
▁tengan	-10.6991
▁Tri	-10.6994
▁nican	-10.6994
eiha	-10.6995
▁compasión	-10.6996
▁Cruz	-10.6996
yaq	-10.6998
▁Italia	-10.6998
▁jeýta	-10.6999
tista	-10.7002
▁clic	-10.7005
▁ky	-10.7005
▁dispuestos	-10.7006
▁educa	-10.7011
▁Asamblea	-10.7011
her	-10.7011
▁versículo	-10.7011
▁renuncia	-10.7012
jua	-10.7013
GU	-10.7016
▁referencia	-10.7016
▁enlace	-10.7018
▁puntos	-10.7018
Revelación	-10.7018
ꟳ	-10.7018
▁tratado	-10.702
▁listo	-10.7021
posición	-10.7024
imatam	-10.7025
yaku	-10.7025
▁principales	-10.7026
▁mostró	-10.7026
▁dueño	-10.7027
ãvéima	-10.7029
▁cultivar	-10.7029
▁Otros	-10.7032
▁uksa	-10.7032
»	-10.7034
▁Andrés	-10.7034
motenonde	-10.7034
ẽmondo	-10.7034
ificar	-10.7036
▁siglos	-10.7037
▁hierba	-10.7041
▁salió	-10.7043
▁Era	-10.7045
cial	-10.7048
▁Aty	-10.7049
▁hablan	-10.7049
ỹinte	-10.705
rakiw	-10.7051
▁ñoqanchik	-10.7051
▁fortalece	-10.7053
IS	-10.7055
▁relaciona	-10.7056
ekuégui	-10.7057
▁hechos	-10.7057
▁ayudado	-10.7059
tiende	-10.7062
▁Asia	-10.7069
▁warma	-10.7071
▁maya	-10.7071
ampi	-10.7072
háre	-10.7075
oñe	-10.7075
▁dejado	-10.7077
dez	-10.7078
▁hampi	-10.7085
▁uku	-10.7089
▁23).	-10.7091
▁junta	-10.7093
▁hoga	-10.7094
▁pruwinsyakuna	-10.7094
chkanchik	-10.7096
prendió	-10.7096
nawa	-10.7101
▁jupa	-10.7109
▁adorar	-10.7109
▁oguenohẽ	-10.7109
▁kuatiañe	-10.7115
1;	-10.7117
▁oguerovia	-10.7118
3;	-10.712
▁pí	-10.712
▁finalmente	-10.7121
▁cui	-10.7122
▁ojavy	-10.7122
joja	-10.7126
▁comete	-10.7127
▁Apocalipsis	-10.7134
▁13:1	-10.7139
itaria	-10.7149
▁perdón	-10.7149
▁término	-10.715
▁ndoikuaái	-10.7155
ãha	-10.7158
▁genera	-10.7165
▁odia	-10.7166
ínte	-10.7166
▁motiva	-10.7168
▁omondo	-10.7171
Imayna	-10.7172
▁harka	-10.7173
▁payta	-10.7173
▁ovecha	-10.7173
▁yachayta	-10.7176
▁bana	-10.718
▁prácticas	-10.7184
▁Wil	-10.7185
▁sienten	-10.7188
▁esfuerzo	-10.7189
▁producción	-10.7195
▁rapichakuéra	-10.7199
▁abuelo	-10.7201
rru	-10.7205
▁leales	-10.7207
▁Lea	-10.7211
▁proclama	-10.7216
▁mamallaqta	-10.7217
▁predikasiónpe	-10.7221
▁fundamental	-10.7224
▁negocio	-10.7224
▁ambiente	-10.7225
▁antiguo	-10.7228
▁Vida	-10.723
▁centra	-10.723
▁designa	-10.7232
jí	-10.7232
▁ainbo	-10.7233
▁Umíva	-10.7235
▁́a	-10.7237
▁fui	-10.7237
▁salmista	-10.724
ferencia	-10.7243
ándole	-10.7243
▁imitã	-10.7246
íma	-10.7252
▁amistadnin	-10.7253
chauka	-10.7254
▁palo	-10.7255
▁Bri	-10.7256
▁takya	-10.7257
▁oñemoñe	-10.7258
bú	-10.726
▁muestran	-10.726
▁Watch	-10.7263
▁oipy	-10.7266
▁Tiene	-10.7267
sqam	-10.727
▁sufrir	-10.727
▁yanapawa	-10.7271
▁lunes	-10.7273
rayhu	-10.7277
▁inicuo	-10.7279
▁iñimportánte	-10.728
▁siuda	-10.728
▁zan	-10.7281
▁tienda	-10.7284
▁PÁ	-10.7285
biendo	-10.7286
▁Zacarías	-10.7286
▁qari	-10.7287
Ajépa	-10.7288
▁Gui	-10.7299
▁Ze	-10.7302
▁jaha	-10.7305
url	-10.7307
▁lloqsi	-10.731
heta	-10.731
▁cuestión	-10.7317
cientos	-10.7319
pp	-10.732
▁ótrope	-10.7325
▁abandona	-10.7327
▁asýva	-10.7328
▁Anta	-10.7329
▁periodista	-10.7333
xta	-10.7337
nakat	-10.7337
▁pä	-10.7341
▁rimaykuna	-10.7344
kurqaku	-10.7346
ñatak	-10.7348
▁oñehenói	-10.7348
cien	-10.7349
▁locales	-10.7351
▁universo	-10.7356
rakiwa	-10.7358
▁borra	-10.7359
▁abrir	-10.7364
Paita	-10.7364
▁Eiporavo	-10.7365
▁sintió	-10.7369
Ña	-10.7369
▁quita	-10.7369
▁ojehai	-10.7373
uye	-10.7376
nmanchu	-10.7378
sqanman	-10.7379
▁Xi	-10.7379
▁ijojaha	-10.738
▁Muchas	-10.738
▁oheka	-10.7381
▁pestañas	-10.7381
▁Torre	-10.7382
ificación	-10.7382
▁nacido	-10.7383
▁superar	-10.7384
▁doce	-10.7387
▁Cue	-10.7388
▁ñorairõ	-10.7388
▁conmigo	-10.7389
▁plazo	-10.7392
takix	-10.7392
▁Opa	-10.7392
▁asigna	-10.7395
teĩ	-10.74
▁chanincha	-10.7401
apópe	-10.7403
▁Departamento	-10.7403
ýta	-10.7405
▁económica	-10.7411
▁omotenonde	-10.7416
▁†	-10.7418
porandú	-10.7419
tru	-10.7419
sqanchikmanta	-10.7425
▁gi	-10.7429
iséi	-10.7432
▁Kamachi	-10.7434
▁Sala	-10.7435
ificado	-10.7436
▁políticos	-10.7442
spanqa	-10.745
▁Armagedón	-10.745
▁organismo	-10.745
▁Ambue	-10.7451
▁rape	-10.7453
scar	-10.7458
▁presentes	-10.7459
▁(4	-10.7461
▁ohaiva	-10.7464
▁axon	-10.7465
▁treinta	-10.7466
▁westiora	-10.7466
▁oñemoag̃ui	-10.7468
▁congregacionpi	-10.7468
link	-10.7469
▁wañuy	-10.747
termina	-10.747
▁imam	-10.7471
▁logra	-10.7473
▁Benítez	-10.7474
▁estúdio	-10.7474
▁paisano	-10.7474
▁quiero	-10.7476
▁iketian	-10.7478
▁34:	-10.7479
nkichu	-10.7479
moirũ	-10.7479
bert	-10.7479
ytam	-10.7481
yetiri	-10.7484
▁henda	-10.7484
6;	-10.7487
tino	-10.7487
▁agradeceku	-10.7489
pái	-10.7491
ptinku	-10.7496
pto	-10.75
iéndose	-10.75
▁aguantar	-10.7501
▁2004	-10.7501
▁jawekibo	-10.7502
▁ukjama	-10.7505
▁Ñoqa	-10.7506
▁árare	-10.7506
▁ndaipori	-10.7506
▁kapuq	-10.7509
▁predikasión	-10.7509
GA	-10.7512
▁niwanchik	-10.7512
▁Siempre	-10.7513
▁elegido	-10.7514
▁camina	-10.7514
▁roñe	-10.7515
▁henyhẽ	-10.7522
05	-10.7526
▁Ezequías	-10.753
▁opárupi	-10.753
▁+	-10.7532
▁pocos	-10.7532
▁consulta	-10.7538
▁olee	-10.754
▁tama	-10.754
▁bautizaku	-10.7543
▁osẽva	-10.7544
cuer	-10.7545
▁amplia	-10.7546
▁momentos	-10.7548
▁rurarqa	-10.755
▁fueran	-10.755
▁maravillosa	-10.7553
▁próximo	-10.7553
▁parla	-10.7554
▁batalla	-10.7554
▁participación	-10.7564
▁jawéki	-10.7567
háme	-10.7569
:11,	-10.7569
▁kuery	-10.757
▁téra	-10.7571
▁ganado	-10.7574
▁hambre	-10.7577
▁estuviera	-10.7577
▁iñarandúva	-10.7577
▁decidir	-10.7578
▁kárta	-10.7578
cina	-10.758
▁200	-10.7586
Mu	-10.7586
horý	-10.7589
haguéicha	-10.7589
▁lugárpe	-10.7592
Despertad	-10.7593
▁sasachakuypi	-10.7595
tequi	-10.7597
▁corte	-10.7598
▁caminos	-10.7599
▁ideas	-10.7601
▁Julio	-10.7605
riya	-10.7607
▁ipochy	-10.7608
pres	-10.7611
▁46	-10.7613
▁Cartes	-10.7614
▁semanas	-10.7614
▁ogueru	-10.7617
▁Balaam	-10.7617
▁Qusqu	-10.7617
▁perdona	-10.7618
kóta	-10.7624
Efe	-10.7632
▁jisa	-10.7633
▁grado	-10.7633
▁preso	-10.7633
▁hayt	-10.7637
épepa	-10.7639
▁Qullunaka	-10.7641
▁inmerecida	-10.7641
imaynatam	-10.7643
ÿ	-10.7649
▁ME	-10.765
chkaptin	-10.7659
▁haihára	-10.7659
▁rápidamente	-10.766
▁cla	-10.766
▁2:4	-10.7665
mein	-10.7665
esarái	-10.7665
▁miércoles	-10.7666
▁predijo	-10.7669
▁omanda	-10.767
▁solicita	-10.7674
▁mantiene	-10.7674
▁selecciona	-10.7682
▁hablaba	-10.7682
spay	-10.7683
▁sirve	-10.7685
▁ijehe	-10.7686
▁1950	-10.7686
▁hual	-10.7689
▁oñemoĩva	-10.769
▁hiciera	-10.7692
▁qhull	-10.7696
nkum	-10.7698
▁qati	-10.77
▁ojeruréva	-10.7701
gada	-10.7701
cā	-10.7703
▁nja	-10.7704
▁extranjero	-10.7708
puesta	-10.7714
ñimportanteterei	-10.7716
▁Rev	-10.772
▁Má	-10.7721
▁oipytyvõta	-10.7723
▁ñanemokyre	-10.7723
erna	-10.7724
▁llaqtanpi	-10.7728
▁Upearã	-10.7733
▁ayude	-10.7734
▁gobernador	-10.7735
g̃u	-10.7737
▁examinar	-10.7737
▁masa	-10.7738
▁Quizás	-10.7738
▁ñandehegui	-10.7738
▁sentencia	-10.7755
como	-10.7756
▁oĩma	-10.7757
▁oĩháme	-10.776
▁kananchik	-10.776
?"	-10.776
▁papapy	-10.7761
xeiya	-10.7761
▁ijy	-10.7762
ñapa	-10.7763
▁lección	-10.7764
▁irre	-10.7764
más	-10.7764
▁graves	-10.7767
▁comenta	-10.7768
mena	-10.777
kame	-10.7773
kuaáta	-10.7776
▁(2007)	-10.7779
▁lealtad	-10.7779
▁oskrivi	-10.7787
▁instituciones	-10.7787
▁rembiasakue	-10.7787
▁vuelta	-10.7787
▁ukhama	-10.7788
9;	-10.7792
▁Vol	-10.7793
▁phi	-10.7795
▁César	-10.7795
▁Pascua	-10.7796
▁super	-10.7796
▁kasqa	-10.7801
▁NO	-10.7803
▁adolescente	-10.7803
▁órgano	-10.7803
▁diga	-10.7807
cón	-10.7808
▁riqsi	-10.7808
▁Ñawpaq	-10.7813
▁Bel	-10.7817
tech	-10.7818
▁hnini	-10.782
▁malos	-10.7823
▁porãite	-10.7824
▁importar	-10.7825
lán	-10.7826
▁simplemente	-10.7827
▁Camp	-10.783
▁2:2	-10.7831
spec	-10.7832
▁lanza	-10.7833
ley	-10.7834
▁ordena	-10.7836
paqpas	-10.7837
▁pagar	-10.7837
véma	-10.7838
etereiha	-10.7838
qlla	-10.7839
▁útil	-10.784
▁(@	-10.784
▁imagina	-10.784
ifica	-10.7841
▁llaqtap	-10.7842
▁alerta	-10.7842
▁radio	-10.7843
▁paha	-10.7852
▁Chawpi	-10.7853
▁mercado	-10.7853
▁qilq	-10.7854
▁podríamos	-10.7856
▁hetã	-10.7857
▁África	-10.7861
▁naiñe	-10.7862
▁qallayku	-10.7864
▁Yacha	-10.7864
▁Moa	-10.7864
▁Quechua	-10.7869
gencia	-10.787
▁verdades	-10.7874
▁wañukusqan	-10.7875
▁unancha	-10.7875
▁paykunata	-10.7879
gusta	-10.788
▁tendrán	-10.788
▁repara	-10.7882
▁Teko	-10.7886
▁19).	-10.7888
▁clara	-10.7889
▁2003	-10.7893
▁científico	-10.7894
▁Ichapas	-10.7894
▁quiso	-10.7894
▁semána	-10.7895
rece	-10.7897
ejerure	-10.7898
▁aun	-10.79
▁compar	-10.79
mej	-10.7901
▁diskúrso	-10.7902
▁presión	-10.7914
▁llaqtanmi	-10.7919
▁insta	-10.7919
▁tarikurqa	-10.7928
▁kómo	-10.793
▁caja	-10.7933
rqakuchu	-10.7933
▁ñawpa	-10.7934
▁1980	-10.7937
▁directamente	-10.7938
To	-10.794
▁desempeña	-10.7943
▁edificio	-10.7943
énsia	-10.7946
▁nten	-10.7946
▁markapi	-10.7949
▁onase	-10.7949
▁munasqanman	-10.7949
▁hekove	-10.795
▁atrás	-10.7952
▁kaqta	-10.7956
▁ñu	-10.7958
mitã	-10.796
▁tá	-10.7961
▁mater	-10.7963
▁decidió	-10.7968
▁ganar	-10.7971
Chay	-10.7972
▁oír	-10.7972
▁volvió	-10.7977
▁beber	-10.7977
émonos	-10.798
ñeñandu	-10.7988
▁imperfectos	-10.799
▁físico	-10.7993
▁ō	-10.7995
▁altura	-10.7996
▁Rréi	-10.8
g̃a	-10.8001
▁rregálo	-10.8001
▁maíz	-10.8001
▁quimo	-10.8002
moinge	-10.8002
▁compartir	-10.8003
▁yachachikuynin	-10.8003
seg	-10.8003
tti	-10.8003
▁profunda	-10.8006
▁jajerure	-10.8006
▁Israelgua	-10.8007
:14,	-10.8007
▁procede	-10.801
▁experimenta	-10.801
▁Estoy	-10.8012
▁28:	-10.8018
ù	-10.8018
▁captura	-10.8019
▁tapuku	-10.8021
chiuh	-10.8022
▁vea	-10.8024
▁jak	-10.8027
2-	-10.803
▁43	-10.8031
myenyhẽ	-10.8035
▁campesino	-10.8035
napaqqa	-10.8037
karaiñe	-10.8037
ákena	-10.804
▁echa	-10.8042
ag̃aite	-10.8043
▁ohenói	-10.8045
Tu	-10.8046
▁moral	-10.8056
wí	-10.8056
aitian	-10.8057
ag̃ui	-10.8058
▁mboajepyréva	-10.806
▁Mira	-10.8062
▁canto	-10.8064
▁sienta	-10.8065
▁rapicha	-10.8065
▁Ben	-10.8065
▁Jerusalen	-10.8068
▁movimiento	-10.8068
▁víctima	-10.8068
ágã	-10.8069
ꞌ	-10.8073
▁nchca	-10.8077
▁hayan	-10.808
▁oñatende	-10.808
▁kaynin	-10.8083
▁KO	-10.8084
▁LAS	-10.8085
▁ñame	-10.8086
▁gusto	-10.8089
▁superintendénte	-10.8093
nega	-10.8094
▁animar	-10.8097
▁CA	-10.8099
quac	-10.8103
▁reconocer	-10.8107
▁salvar	-10.8108
▁1999	-10.8109
▁Wikispecies	-10.811
▁configuración	-10.811
▁industria	-10.811
copa	-10.8111
Hu	-10.8113
▁oñembyaty	-10.8119
▁Jerusalénpe	-10.812
Qaway	-10.8121
nú	-10.8122
▁asu	-10.8123
▁omoñepyrũ	-10.8123
▁esclavos	-10.8123
ticos	-10.8124
▁prometido	-10.8127
▁pulitiku	-10.8127
▁Alma	-10.8128
▁kuéra	-10.8128
warqaku	-10.813
▁traer	-10.8132
▁watapim	-10.8133
▁Ajépa	-10.8134
▁circuito	-10.8136
ýramo	-10.8143
▁ikon	-10.8147
prim	-10.815
korrehi	-10.8153
SO	-10.8155
▁sección	-10.8157
stad	-10.817
▁huñu	-10.8171
▁SPL	-10.8175
▁Día	-10.8178
vévo	-10.8178
Jos	-10.8181
▁triste	-10.8186
▁Enra	-10.8186
▁encontramos	-10.8186
pyrã	-10.819
▁Embogue	-10.8194
▁ruwarqa	-10.8195
▁meditar	-10.8197
▁regular	-10.8198
▁Nd	-10.82
▁Abdo	-10.8206
▁1970	-10.8208
▁detrás	-10.8212
▁jeheka	-10.8212
▁formación	-10.8226
▁hinachu	-10.8228
▁gustaría	-10.8228
▁versículos	-10.8228
▁capaz	-10.8229
▁analizar	-10.823
▁Adan	-10.8232
▁Iskay	-10.8235
▁continuar	-10.8235
▁quiera	-10.8235
▁SA	-10.8236
▁yoiya	-10.8241
▁iñimportánteva	-10.8245
▁yoiwe	-10.8245
▁Bla	-10.8253
▁ranti	-10.8253
konsola	-10.8255
▁comisión	-10.8255
▁Solo	-10.8256
mbohekopyahu	-10.8257
▁pesca	-10.8266
▁tarjeta	-10.8272
irinakax	-10.8272
deo	-10.8273
puku	-10.8273
▁isy	-10.8274
▁promésa	-10.828
▁breve	-10.8281
▁2)	-10.8284
siña	-10.8286
▁guardar	-10.8287
ense	-10.8292
▁Tuicha	-10.8292
▁pusa	-10.8293
▁ehe	-10.8293
ápa	-10.8295
▁2019	-10.8297
▁antigüedad	-10.8297
▁Apostol	-10.8297
▁ataca	-10.8303
▁cultural	-10.8303
abora	-10.8304
▁Esa	-10.8304
▁qillqaq	-10.8307
▁miti	-10.831
suyu	-10.831
▁15/1	-10.831
▁ojagarra	-10.8314
▁Federación	-10.8314
▁gobernar	-10.8316
ñeporandu	-10.8317
▁kawsakuy	-10.8318
▁hatuncha	-10.8321
▁licencia	-10.8324
▁nueve	-10.8324
▁sexual	-10.8327
sqanrayku	-10.8329
▁Etiopía	-10.8332
vusu	-10.8332
▁sagrado	-10.8332
khu	-10.8334
▁mandó	-10.8334
hina	-10.8337
keri	-10.8338
▁yachanchik	-10.8338
▁qhawa	-10.8338
sãso	-10.8339
▁realizó	-10.834
▁ñakariy	-10.8343
páta	-10.8345
▁hetaite	-10.8346
▁sirven	-10.8347
YA	-10.8349
Mana	-10.835
▁letra	-10.8352
▁́lí	-10.8356
▁parecer	-10.8357
▁debían	-10.8359
▁completamente	-10.836
ihápe	-10.8361
▁axea	-10.8361
▁instalar	-10.8361
▁opytá	-10.8362
▁practica	-10.8366
ninkuna	-10.8369
:13,	-10.8371
CIÓN	-10.8374
▁Conmemoración	-10.8375
▁muchedumbre	-10.8375
lista	-10.8376
▁asuyku	-10.8377
▁pasos	-10.8382
QUÉ	-10.8384
▁munisipyupi	-10.8384
spanchik	-10.8384
:28).	-10.8385
muy	-10.8385
terei	-10.8387
▁amuy	-10.8387
▁comenzar	-10.8391
▁21).	-10.8391
kyre	-10.8393
▁elecciones	-10.8394
▁tó	-10.84
▁leemos	-10.84
▁ipoguýpe	-10.8401
TRA	-10.8402
▁internet	-10.8402
Podría	-10.8404
▁aleja	-10.8405
▁creencias	-10.8407
▁huñunakuy	-10.8408
▁viola	-10.8414
▁trae	-10.8415
ntema	-10.8417
▁sata	-10.8418
▁wawqe	-10.8418
▁jw	-10.8422
atã	-10.8422
▁conflicto	-10.8427
▁podido	-10.8427
▁cuiya	-10.8431
ẽrõ	-10.8432
▁phu	-10.8433
▁compre	-10.8433
MBO	-10.8439
▁ukha	-10.8442
▁roho	-10.8442
▁comunidades	-10.8445
▁Diego	-10.8453
▁siguió	-10.8453
▁distritukuna	-10.8454
▁ibo	-10.8458
rusu	-10.8459
▁Alto	-10.8459
Mayna	-10.8461
▁jeroviaha	-10.8461
▁angustia	-10.8462
▁derecha	-10.8463
forme	-10.8465
▁MI	-10.8465
▁trabajadores	-10.8469
▁dije	-10.847
▁procedimiento	-10.847
▁Mexico	-10.847
▁pájaro	-10.847
▁cuya	-10.8471
▁edifica	-10.8473
▁jaikó	-10.8479
myatyrõ	-10.8479
▁yachachiwanchik	-10.8482
yninta	-10.8484
spankupas	-10.8484
▁Plan	-10.8485
▁44	-10.8489
rekóva	-10.8489
▁ndorekói	-10.849
▁QUE	-10.849
▁refleja	-10.8491
▁kepa	-10.8495
uhqui	-10.8495
▁desierto	-10.8497
▁dí	-10.85
▁itech	-10.85
ñandu	-10.8503
▁siento	-10.8504
ménto	-10.8505
▁pornografía	-10.8506
▁remimbo	-10.8506
▁(%	-10.8507
▁kananmanta	-10.8508
bicho	-10.8513
▁máximo	-10.8514
japóvo	-10.8514
▁Ára	-10.8515
500	-10.8517
mawe	-10.8518
tén	-10.852
▁tengamos	-10.8522
▁kuarahy	-10.8523
▁Domingo	-10.8523
▁privado	-10.8523
line	-10.8526
▁mosoq	-10.8532
▁Ing	-10.8535
▁27:	-10.8535
▁DI	-10.8537
▁éste	-10.8543
nxon	-10.8545
▁MA	-10.8546
▁cuándo	-10.8549
▁estrecha	-10.8549
iporavó	-10.8549
▁Les	-10.8551
▁serviy	-10.8551
▁nápi	-10.8559
rundy	-10.8559
▁enorme	-10.8559
▁Ese	-10.8562
▁oposición	-10.8563
plo	-10.8564
▁naturales	-10.8566
llpa	-10.8566
▁mohendaha	-10.8567
▁ikax	-10.8568
▁yachan	-10.857
▁omanó	-10.8575
Dan	-10.8575
▁exige	-10.8575
salva	-10.8578
▁saca	-10.8584
▁conversación	-10.8589
▁huñunaku	-10.8591
▁iñimportanteve	-10.8593
▁aspectos	-10.8594
zón	-10.8597
▁Salud	-10.8599
▁1994	-10.8599
▁personales	-10.8601
▁permitió	-10.8602
ológica	-10.8602
▁jakonma	-10.8604
▁invitación	-10.8604
sten	-10.861
ān	-10.8611
▁conocía	-10.8611
Hebreos	-10.8614
xata	-10.8618
▁perfil	-10.8622
▁yatiya	-10.8624
▁purahéi	-10.8624
▁oñemongeta	-10.8625
▁Mal	-10.8625
▁Ñanemandu	-10.863
▁Dos	-10.8631
▁hógape	-10.8633
▁távape	-10.8634
▁malvado	-10.8641
CHA	-10.8643
▁Dicen	-10.8644
POR	-10.8645
▁diversas	-10.8647
riwa	-10.8647
Nde	-10.8647
▁preparado	-10.8648
kamu	-10.8653
▁utanaka	-10.8653
guýpe	-10.8662
▁municipio	-10.8664
▁aprecia	-10.8664
▁brazo	-10.8665
cru	-10.8667
marka	-10.8667
8-	-10.8667
▁martes	-10.8671
nankama	-10.8671
▁sipas	-10.8672
▁valioso	-10.8674
▁Ven	-10.8675
▁ipype	-10.8676
▁oipytyvõva	-10.8678
▁Ñanduti	-10.8682
cac	-10.8683
▁faraón	-10.8683
GUA	-10.8684
▁Abel	-10.8684
rjama	-10.8685
▁metas	-10.8688
ller	-10.8698
▁carácter	-10.87
sqanchikrayku	-10.87
sic	-10.8701
spankuqa	-10.8704
▁barrio	-10.8705
▁trigo	-10.8706
▁qallta	-10.8709
▁Sé	-10.8712
▁establecer	-10.8713
cito	-10.8714
▁watakama	-10.8716
▁Sólo	-10.8718
rillo	-10.8718
▁Jawe	-10.8718
▁antiguos	-10.8723
▁Espíritu	-10.8727
uelo	-10.8732
▁amorosa	-10.8733
▁agradable	-10.8735
▁akllasqa	-10.8735
▁Paraíso	-10.8736
▁kawsarimu	-10.8736
▁1992	-10.8741
poli	-10.8742
ther	-10.8744
▁obediente	-10.8745
▁peg̃uarã	-10.8745
Dónde	-10.8745
▁encima	-10.8748
▁PA	-10.8748
▁64	-10.8752
▁valiosa	-10.8754
▁Comité	-10.8755
agradese	-10.8756
▁Naciones	-10.8757
▁golpe	-10.8762
veimaha	-10.8763
▁Eike	-10.8766
▁vuelve	-10.8769
mayu	-10.8769
tantyari	-10.877
▁otrata	-10.8772
▁onqo	-10.8772
▁rami	-10.8774
Quiénes	-10.8775
quiz	-10.8776
haguére	-10.8778
Hay	-10.878
▁Bal	-10.8781
▁comenzaron	-10.8784
▁aves	-10.8787
ì	-10.8787
▁George	-10.8788
▁provoca	-10.879
▁Estaba	-10.8791
bili	-10.8791
▁puñu	-10.8794
ñomongeta	-10.8799
▁Jára	-10.88
▁300	-10.8802
viendo	-10.8802
▁plata	-10.8804
Po	-10.8808
▁valiente	-10.8809
▁dirigir	-10.8809
mbareté	-10.8813
▁ojeroviáva	-10.8817
▁tendápe	-10.8817
▁Enrique	-10.8817
▁hatã	-10.8819
▁2002	-10.8819
▁demonios	-10.8821
▁eha	-10.8822
▁revis	-10.8825
▁iñañáva	-10.8826
▁Tupã	-10.8826
▁marido	-10.8827
▁comen	-10.8829
▁tratamiento	-10.8831
▁Salvador	-10.8835
▁ifamiliakuéra	-10.8835
▁coloca	-10.8836
▁Maman	-10.8838
▁kutichi	-10.8841
▁bloquea	-10.8843
▁secreto	-10.8844
scrib	-10.8845
▁Superior	-10.8853
waqninchik	-10.8854
▁llevado	-10.8855
kani	-10.8855
▁ilustra	-10.8856
▁maestros	-10.8863
ducir	-10.8868
4-	-10.8871
▁terrestre	-10.8871
▁iñiqkuna	-10.8872
cente	-10.8872
▁paykunapa	-10.8873
ág̃arupi	-10.8879
▁dör	-10.888
▁có	-10.8883
Hi	-10.8884
▁25).	-10.8884
fica	-10.8885
▁diseño	-10.8892
▁milagro	-10.8893
▁ungido	-10.8896
▁espada	-10.8898
titu	-10.8905
▁razonable	-10.8908
▁Walla	-10.8916
▁hijas	-10.8918
▁ciencia	-10.892
▁wat	-10.8921
▁pul	-10.8922
▁jila	-10.8924
▁judicial	-10.8926
▁intereses	-10.8926
▁Churinkuna	-10.8926
ptinchik	-10.8926
▁reunir	-10.893
▁VA	-10.8931
itz	-10.8933
▁acceder	-10.8935
▁vivimos	-10.8935
ptinkupas	-10.8937
▁burla	-10.8937
▁determinar	-10.8937
▁yuca	-10.894
▁regresar	-10.894
▁Comp	-10.8941
▁chiqa	-10.8941
kunap	-10.8941
▁keská	-10.8944
▁niya	-10.8947
▁willakun	-10.8948
▁posee	-10.895
▁condena	-10.8951
▁2011-2014	-10.8953
▁irpiri	-10.8956
▁oñemombe	-10.8959
fil	-10.8959
cidad	-10.8962
▁ideprovécho	-10.8962
yninchik	-10.8965
▁institución	-10.8966
ÍA	-10.8967
g̃ua	-10.8972
apý	-10.8975
▁controlar	-10.8978
▁pase	-10.898
cuil	-10.898
▁ohejá	-10.898
▁kasukuq	-10.898
OR	-10.8981
▁limpio	-10.8981
▁agradece	-10.8983
▁grúpo	-10.899
▁persecución	-10.899
▁guarã	-10.899
▁medi	-10.8993
▁jajapóramo	-10.8993
pxatayna	-10.8994
▁tome	-10.8999
▁Rodríguez	-10.8999
▁ojehu	-10.8999
▁Rima	-10.9011
▁cerro	-10.9019
▁aiko	-10.9021
▁hermoso	-10.9027
▁tikra	-10.9029
▁opera	-10.903
▁Pabloqa	-10.9032
▁inin	-10.9035
qua	-10.9039
▁rikchaku	-10.9048
cle	-10.9049
▁bautizado	-10.9052
▁veía	-10.9052
▁ndaija	-10.9055
▁tareas	-10.9056
lló	-10.9058
▁kuánto	-10.9064
▁recibe	-10.9066
ctiv	-10.9068
▁chacra	-10.9069
Tiene	-10.907
lice	-10.907
:24).	-10.9073
▁Gri	-10.9074
▁requisitos	-10.9074
▁soldado	-10.9076
lú	-10.9078
moñepyrũ	-10.908
▁omanova	-10.9081
cah	-10.9082
ándolo	-10.9084
▁hawkalla	-10.9084
▁1960	-10.9085
jejapo	-10.9087
gé	-10.9092
▁URL	-10.9092
▁41	-10.9093
▁amoroso	-10.9094
ling	-10.9098
▁aservi	-10.9099
▁características	-10.91
ística	-10.9101
▁dominio	-10.9101
▁Lenguas	-10.9103
¡	-10.9104
▁jaskáa	-10.9104
▁resistir	-10.9105
sqanwan	-10.9107
▁11:1	-10.9109
▁Nosotros	-10.911
▁económico	-10.911
▁iniciativa	-10.9113
▁Marandu	-10.9114
▁entusiasmo	-10.912
▁TNM	-10.912
gh	-10.912
▁kametsa	-10.912
▁plataforma	-10.912
▁encarga	-10.9122
vió	-10.9123
sipk	-10.9129
tiki	-10.9129
▁tuichakuére	-10.913
▁ñamombe	-10.9131
▁valle	-10.9134
▁condición	-10.9137
▁ijedáva	-10.9138
cahua	-10.9141
▁Tiempo	-10.9148
▁Piensa	-10.9148
▁extranjeros	-10.9154
ntyari	-10.9164
▁identidad	-10.9166
arõva	-10.9169
▁Don	-10.9175
ntli	-10.9175
ãrõ	-10.9178
UN	-10.9179
▁llaqtaman	-10.9183
kuaauka	-10.9184
script	-10.9184
ninku	-10.9185
▁análisis	-10.9185
▁moĩmbaha	-10.9185
▁barra	-10.9186
osos	-10.9187
▁luchar	-10.9188
▁demuestran	-10.9189
▁jardín	-10.9194
▁resucitado	-10.9194
ptiy	-10.9195
▁central	-10.9198
▁pensamiento	-10.92
sufri	-10.9201
▁1995	-10.9201
▁Eduardo	-10.9204
▁inmediato	-10.9204
▁Chayraykum	-10.9204
▁pampa	-10.9208
▁Cusco	-10.9208
▁kopí	-10.9208
▁Uno	-10.9209
anqayuq	-10.921
▁Piluta	-10.9213
▁abogado	-10.9213
▁paymi	-10.9215
▁realizado	-10.9216
WA	-10.9222
▁Asociación	-10.9223
▁Corinto	-10.9223
bón	-10.9223
▁llamar	-10.9232
awix	-10.9232
▁Nayriri	-10.9232
▁William	-10.9232
▁kaqmanta	-10.9244
▁pantaq	-10.9245
▁predicando	-10.9247
▁tuicháva	-10.9251
▁Segundo	-10.9251
▁Wawa	-10.9254
▁madera	-10.9256
▁digital	-10.926
kunanchik	-10.926
ykurqa	-10.9261
▁parki	-10.9264
▁aire	-10.9265
▁casta	-10.9266
tlaca	-10.9268
▁matrimónio	-10.927
▁hekoitépe	-10.9271
▁musyaku	-10.9272
▁peñe	-10.9273
wk	-10.9274
▁Isla	-10.9275
▁5:3	-10.9277
▁káusare	-10.9279
▁derécho	-10.928
Link	-10.9281
guasúi	-10.9283
>{	-10.9283
▁</	-10.9286
mbojuehe	-10.9289
▁trampa	-10.929
▁tyaa	-10.9291
▁pusaq	-10.9292
Va	-10.9292
▁fielmente	-10.9294
ónica	-10.9297
Pu	-10.9299
▁diario	-10.9301
▁çan	-10.9302
myesakã	-10.9304
jeita	-10.9305
▁escritura	-10.9308
▁jaiporu	-10.9308
Ni	-10.9309
▁Madre	-10.9313
hepyme	-10.9314
tzinco	-10.9318
▁expresar	-10.9319
▁rimasqan	-10.9321
jepokuaa	-10.9322
▁guiar	-10.9322
▁ocurrió	-10.9327
▁comportamiento	-10.9328
▁dicta	-10.9329
▁Política	-10.9334
momandu	-10.9335
burg	-10.9338
▁pura	-10.9339
▁iñiy	-10.9339
▁ojejuka	-10.9341
kanta	-10.9342
▁hermosa	-10.9346
▁Runakuna	-10.9347
▁Llaqta	-10.9347
▁calli	-10.935
▁Amérikagua	-10.9357
nakar	-10.9363
▁temporal	-10.9365
▁jueves	-10.9365
▁disposición	-10.9366
▁producto	-10.9367
▁yuyay	-10.9372
HO	-10.9373
RU	-10.9374
vier	-10.9376
▁existen	-10.9378
▁ñamba	-10.9381
▁inmediatamente	-10.9384
Com	-10.9389
ndú	-10.9391
▁francés	-10.9393
▁discreto	-10.9393
▁tiémpore	-10.9394
▁llakiku	-10.9397
ô	-10.9397
ñaína	-10.9402
mbyatý	-10.9403
▁similar	-10.9404
lico	-10.9405
jevautisa	-10.9407
▁encontrará	-10.9407
kuaáramo	-10.9414
▁prisión	-10.9417
ïr	-10.9419
▁kamachikuynin	-10.9421
nkupi	-10.9426
▁asocia	-10.9426
▁kananku	-10.9428
mbovy	-10.9429
▁aspecto	-10.9431
▁Foto	-10.9431
▁Bautista	-10.9432
kusqan	-10.9432
Marcos	-10.9432
jw	-10.9436
▁Inka	-10.9437
▁tomado	-10.9438
▁US	-10.9439
▁tetepy	-10.9442
▁escrita	-10.9442
▁lur	-10.9443
▁mante	-10.9443
▁señaló	-10.9445
▁kikillan	-10.9452
PU	-10.9455
▁ubica	-10.9455
tō	-10.9455
▁oîva	-10.9457
jere	-10.9457
cán	-10.9458
sunki	-10.9461
▁comprar	-10.9462
▁pusieron	-10.9462
▁guasúpe	-10.9462
▁serio	-10.9463
▁ojehechauka	-10.9466
cauh	-10.947
▁muchísimo	-10.947
▁Ñepyrũrã	-10.947
hecháta	-10.9473
▁1919	-10.9474
▁Wara	-10.9474
yachi	-10.9477
▁rapykuéri	-10.948
Genesis	-10.948
Imaynam	-10.9481
hu̱	-10.9481
600	-10.9482
▁ataque	-10.9488
▁onanti	-10.9489
ctli	-10.949
mboheraguapy	-10.949
▁Pri	-10.9491
▁soltero	-10.9493
▁puku	-10.9495
▁Paraguáipe	-10.9496
▁jeytaha	-10.9496
▁Lorenzo	-10.9499
▁pérdida	-10.9499
▁técnica	-10.9499
toca	-10.9501
▁tamaño	-10.9502
juru	-10.9502
▁Hinaspa	-10.9507
▁cap	-10.9508
▁Diputados	-10.9508
▁Pentecostés	-10.9509
▁Sãmbyhyha	-10.9509
▁Familia	-10.9509
▁contexto	-10.9509
▁ruraspa	-10.951
ánico	-10.9511
▁abajo	-10.9511
Jo	-10.9512
▁correcta	-10.9514
kusqanta	-10.9515
ñax	-10.9519
▁Jonás	-10.9519
▁amamos	-10.9526
▁puklla	-10.9528
▁pensando	-10.9529
guáre	-10.9531
▁descendientes	-10.9533
▁upégui	-10.9538
cero	-10.9539
▁Xo	-10.9539
▁49	-10.9541
erepy	-10.9544
▁trono	-10.9544
▁piense	-10.9545
▁Media	-10.9545
Vi	-10.9547
puesto	-10.9548
▁omopu	-10.955
iséva	-10.9555
HU	-10.9557
▁sirviendo	-10.9558
▁markanaka	-10.9559
▁otorga	-10.9559
▁Agua	-10.9563
nchikchu	-10.9567
▁oikuave	-10.9567
ñemongeta	-10.9569
▁Emp	-10.9572
▁llank	-10.9574
▁trató	-10.9575
▁quichen	-10.9577
▁rurasqa	-10.9582
▁vivía	-10.9586
▁Gabriel	-10.9587
count	-10.9591
Deut	-10.9595
▁creía	-10.9595
▁Mostrar	-10.9597
jeprepara	-10.9597
▁tesoro	-10.9598
▁2:3	-10.9598
11)	-10.9598
▁Aquí	-10.9601
dge	-10.9602
mber	-10.9604
▁Puesto	-10.9612
▁Emo	-10.9614
▁ñañemoag̃ui	-10.9618
▁cama	-10.9619
▁31:	-10.9619
▁milagros	-10.9622
▁Mburuvicha	-10.9626
▁Cer	-10.9627
▁pó	-10.9628
▁voto	-10.963
▁defender	-10.963
▁soldados	-10.9633
▁textos	-10.9637
▁emba	-10.9637
ísta	-10.9638
▁mani	-10.9638
▁jastudia	-10.9641
NG	-10.9642
betan	-10.9644
defini	-10.9644
▁sencilla	-10.9645
▁adulto	-10.9647
▁orekoha	-10.9648
▁Xa	-10.9649
▁Sch	-10.9649
▁Tekotevẽ	-10.9651
Ex	-10.9652
▁imita	-10.9653
▁Primera	-10.9655
▁pachak	-10.9655
▁1930	-10.9656
▁respetar	-10.9656
▁Tenemos	-10.9656
▁pobres	-10.9658
▁semejante	-10.9665
▁willakusqan	-10.9666
▁cristianokunaqa	-10.9674
▁Ignacio	-10.9675
▁milágro	-10.9675
▁ñakarichi	-10.9675
▁fuertes	-10.968
▁sach	-10.9682
▁hinallam	-10.9683
▁interpreta	-10.9688
▁compañero	-10.9688
▁iñiqmasinkuna	-10.9688
▁tercera	-10.9689
▁conserva	-10.9689
▁palávra	-10.9695
▁hendáicha	-10.9695
▁prioridad	-10.9695
▁Paulo	-10.9699
:12,	-10.9699
funda	-10.9701
▁Medi	-10.9704
▁podamos	-10.9705
▁vivos	-10.9706
▁Bru	-10.9711
▁existencia	-10.9712
mboguata	-10.9714
▁comentarios	-10.9714
▁apytégui	-10.9714
▁Galaad	-10.9714
▁UN	-10.9715
▁4:2	-10.9717
▁describe	-10.972
▁phaxsi	-10.9721
jesareko	-10.9721
▁48	-10.9722
nohẽ	-10.9723
▁Paz	-10.9723
▁daba	-10.9723
▁León	-10.9728
parte	-10.9728
mbohéra	-10.9732
▁Eikuaa	-10.9732
▁hawka	-10.9734
▁jichha	-10.9734
▁porãramo	-10.9734
cular	-10.9737
▁nija	-10.9737
▁yachachiq	-10.9738
▁pedido	-10.9739
▁tercero	-10.9742
▁Tembiapo	-10.9744
▁cometido	-10.9744
▁119:	-10.9745
▁1993	-10.9747
▁seamos	-10.9749
▁51	-10.9751
▁1989	-10.9751
▁hacerse	-10.9752
▁ovechakuéra	-10.9752
páma	-10.9754
▁complemento	-10.9754
▁demostramos	-10.9754
▁DIOS	-10.9755
▁oĩvape	-10.9757
Jawekeska	-10.9758
▁ysyry	-10.9758
yninpi	-10.9759
▁53	-10.9763
ikundaha	-10.9764
▁Rafael	-10.9764
▁oñangarekó	-10.9764
▁ohechakuaá	-10.9764
Efesios	-10.9766
tantsi	-10.9766
▁ty	-10.9768
sqanpi	-10.9768
▁armonía	-10.9774
▁mayma	-10.9774
nkuwan	-10.9775
▁interesante	-10.9775
▁144.000	-10.9775
▁lá	-10.9779
▁toro	-10.978
boribi	-10.9784
▁Unidas	-10.9784
▁cayó	-10.9785
▁Yaqa	-10.9786
▁pago	-10.979
▁nombra	-10.9794
▁idiferénte	-10.9794
▁priviléhio	-10.9794
▁lectores	-10.9794
ÑA	-10.9795
▁nepytyvõ	-10.9795
Filip	-10.9799
▁yvagapegua	-10.9804
▁Electoral	-10.9804
▁rojapo	-10.9804
▁JE	-10.9806
▁oñekotevẽ	-10.9809
▁ño	-10.9813
▁Android	-10.9814
▁universidad	-10.9814
▁Aarón	-10.9814
ncio	-10.9815
ciera	-10.9818
spaymi	-10.982
▁maravilloso	-10.9824
▁onana	-10.9826
▁Angel	-10.9829
▁mencionado	-10.9829
▁parecía	-10.9834
nä	-10.9835
izar	-10.9835
▁anchatam	-10.9838
rô	-10.9839
▁tã	-10.9842
▁jaheja	-10.9843
▁siérvo	-10.9844
etépe	-10.9846
▁usó	-10.9846
▁oportunida	-10.9848
▁nepytyvõta	-10.985
▁Tur	-10.985
▁formar	-10.9851
▁Nahániri	-10.9854
▁computadora	-10.9854
▁encuentro	-10.9854
▁hapichápe	-10.9854
káva	-10.9856
▁qellqarqa	-10.986
▁terminó	-10.9862
ñepyrû	-10.9864
▁Libertad	-10.9864
▁tembireko	-10.9866
▁24).	-10.9868
▁olvida	-10.987
▁jainoax	-10.9871
servi	-10.9873
▁blanca	-10.9874
▁políticas	-10.9875
▁Mara	-10.9876
▁jiwi	-10.9877
▁aula	-10.9881
▁cien	-10.9884
▁competencia	-10.9884
▁Ñemañaha	-10.9884
▁ombyai	-10.9884
▁Kamasqa	-10.9884
tlal	-10.9885
▁ahechakuaa	-10.9885
▁destruir	-10.9885
gueromandu	-10.9886
▁ndä	-10.9888
husga	-10.9888
▁relatos	-10.9889
▁venido	-10.989
marca	-10.989
▁Rusia	-10.9892
ndida	-10.9894
▁asambléa	-10.9894
▁poguýgui	-10.9894
▁mochi	-10.9894
▁rurasqanku	-10.9895
̱ni	-10.9896
ãmbaité	-10.9897
▁Ukat	-10.9899
mbopy	-10.99
▁conocida	-10.9904
▁Markus	-10.9909
wit	-10.9909
cuest	-10.991
▁sano	-10.9913
▁ñanderehehápe	-10.9914
onda̱	-10.9914
▁totalmente	-10.9918
▁qoE	-10.9919
Todo	-10.9919
spayki	-10.992
▁120	-10.9922
▁cuestiones	-10.9924
▁equivoca	-10.9924
▁frecuencia	-10.9924
▁cruel	-10.9924
▁IN	-10.9926
lino	-10.9927
karu	-10.993
▁Chaymanta	-10.9931
ñatakix	-10.9933
takeri	-10.9934
▁Ángel	-10.9935
▁denuncia	-10.9935
▁Derechos	-10.9937
▁atýpe	-10.9938
apohára	-10.9944
▁rupípa	-10.9944
▁vieron	-10.9945
▁kuyanaku	-10.9946
▁22).	-10.9947
▁transforma	-10.9947
ñatende	-10.9949
sqanchikman	-10.995
▁1998	-10.9952
Efes	-10.9953
▁presentó	-10.9955
ẽrõitéma	-10.9955
▁imposible	-10.9965
▁Inter	-10.9969
▁pensaba	-10.9969
▁joibo	-10.997
qhi	-10.9971
▁Epidendrum	-10.9975
▁ndovaléi	-10.9975
▁Central	-10.9975
▁ñemboheko	-10.9976
sqanraykum	-10.9977
▁willakurqa	-10.9978
tario	-10.9979
▁ojesalva	-10.9981
▁idiómape	-10.9982
Di	-10.9984
upy	-10.9985
▁Dirección	-10.9985
▁29).	-10.9987
▁72	-10.999
kunapim	-10.9991
▁mío	-10.9992
▁puntata	-10.9995
▁ndojapo	-10.9995
▁crecimiento	-10.9996
▁seguimos	-10.9997
▁Ramón	-10.9998
▁oñemoingove	-10.9998
nanpaqmi	-10.9999
▁sale	-11.0001
▁presentar	-11.0004
▁Tesalonicenses	-11.0005
nanchikchu	-11.0007
▁Mac	-11.0007
ronqui	-11.0014
▁kachkaptin	-11.0019
▁luna	-11.0022
▁celebrar	-11.0024
▁necesit	-11.0025
▁tlaca	-11.0029
▁Pablom	-11.0031
▁Fil	-11.0036
▁kookie	-11.0036
nstitu	-11.0039
▁ñañatende	-11.0039
▁Mé	-11.004
▁mancha	-11.0041
▁1987	-11.0042
▁ombohasa	-11.0043
▁tetãvore	-11.0046
▁ejapo	-11.0046
▁leal	-11.0052
apýva	-11.0053
Gálatas	-11.0056
▁multitud	-11.0057
▁jehecha	-11.0057
▁Hukllachas	-11.0058
▁Autoridades	-11.0061
▁rechazar	-11.0061
pýva	-11.0062
Fil	-11.0063
▁SU	-11.0064
▁oimehápe	-11.0064
zco	-11.0065
▁Tiémpo	-11.0067
▁coordina	-11.0067
▁Suprema	-11.0067
▁alcance	-11.0067
▁analiza	-11.0067
ACIÓN	-11.0067
ÑO	-11.0068
▁Chupe	-11.0068
▁apensa	-11.0069
SPL	-11.0071
▁Javier	-11.0072
llawan	-11.0075
pyrũ	-11.0076
▁impedir	-11.0077
▁orgullo	-11.0078
tillo	-11.0078
inlish	-11.0081
kuqkuna	-11.0082
▁digno	-11.0082
▁generación	-11.0085
▁Rio	-11.0086
juka	-11.0086
▁móvil	-11.0087
▁permanente	-11.0087
eguasúva	-11.0087
▁bastante	-11.0088
▁Enoc	-11.0089
▁dioses	-11.0093
▁recibieron	-11.0097
▁inon	-11.0098
▁desarrollar	-11.0101
shita	-11.0105
▁sentado	-11.0108
ytapas	-11.0116
▁qipa	-11.0116
▁omoĩva	-11.0116
▁pestaña	-11.0117
▁Canadá	-11.0118
guna	-11.0123
tē	-11.0123
▁nchgaa	-11.0128
▁siembra	-11.0128
▁restaur	-11.0129
▁sonido	-11.0131
▁amaba	-11.0131
▁arst	-11.0132
▁materna	-11.0133
qkunapa	-11.0138
▁ojuhu	-11.0138
▁gestión	-11.0139
▁cuarenta	-11.0139
sqayta	-11.0141
▁placer	-11.0141
▁`	-11.0141
▁amado	-11.0142
▁raza	-11.0144
▁tercer	-11.0147
▁chaypim	-11.0151
▁rico	-11.0153
▁munaynin	-11.0159
▁Israélpe	-11.0159
▁mborayhúpe	-11.0159
▁Norte	-11.0159
▁persónape	-11.0163
▁Tras	-11.0167
▁yuyaq	-11.0172
▁defecto	-11.0173
ÑE	-11.0174
▁medita	-11.0175
presión	-11.0175
reíva	-11.0176
▁campos	-11.0177
▁ruwaq	-11.0177
▁desarrolla	-11.0178
▁imamantapas	-11.0178
ísimo	-11.0179
ninkuta	-11.0179
▁10:1	-11.0185
▁puro	-11.0185
▁1984	-11.0186
▁Huch	-11.0187
▁PETEĨ	-11.019
▁ámbito	-11.019
▁joaju	-11.0192
vévape	-11.0197
▁Fernández	-11.0201
ngatú	-11.0204
▁ruwayta	-11.0205
▁quiénes	-11.021
▁Charles	-11.0211
dición	-11.0212
▁enterovéva	-11.0213
▁Usted	-11.0215
MAN	-11.0216
▁}</	-11.0216
▁1986	-11.0219
▁taypi	-11.0221
▁ignora	-11.0222
▁jamuqa	-11.0222
▁mentira	-11.0222
▁escriba	-11.0222
▁servirle	-11.0223
maca	-11.0231
▁vivió	-11.0234
▁Allpa	-11.0235
▁runata	-11.0235
▁1991	-11.0239
▁llora	-11.0241
▁Qi	-11.0242
▁ovetã	-11.0242
▁fruta	-11.0242
▁ruvicha	-11.0243
▁kawk	-11.0244
▁Ndaha	-11.0245
▁regresa	-11.0247
▁dra	-11.0247
▁sarta	-11.0249
▁ilustración	-11.0249
▁querido	-11.0249
▁ñemano	-11.025
▁omoheñói	-11.0251
▁integridad	-11.0253
sax	-11.0254
▁salida	-11.0256
▁vestir	-11.0259
▁kamachirqa	-11.0262
ãichagua	-11.0262
▁Público	-11.0263
▁kusichi	-11.0264
▁ipya	-11.0265
ço	-11.0269
▁bri	-11.0273
▁progreso	-11.0274
▁exactamente	-11.0276
▁asistencia	-11.0279
Puede	-11.0279
▁Tower	-11.0284
▁distinta	-11.0284
▁Cur	-11.0285
▁aswanta	-11.0288
▁ombyaty	-11.0289
▁munaychakusqan	-11.0292
wasqanchik	-11.0294
▁nic	-11.0295
▁7:1	-11.0297
ayata	-11.0302
▁estructura	-11.0305
▁Eliseo	-11.0305
▁kallpanchawa	-11.0305
titlan	-11.0307
▁carro	-11.0308
▁introduc	-11.0308
▁Mont	-11.0309
▁iamax	-11.031
VO	-11.031
▁corona	-11.0311
▁1981	-11.0312
▁profundamente	-11.0312
▁1940	-11.0314
▁Fuerza	-11.0315
cluido	-11.0315
▁flecha	-11.0316
▁káso	-11.0317
▁Zo	-11.0318
▁Dr	-11.0322
biribi	-11.0324
▁báque	-11.0331
▁comprende	-11.0334
▁40:	-11.0336
▁Provincial	-11.0341
▁extensión	-11.0347
▁Pública	-11.0347
▁hóga	-11.0353
▁sala	-11.0353
▁bendicion	-11.0355
▁ipyahúva	-11.0358
▁sapakama	-11.0364
xonra	-11.0367
▁Australia	-11.0368
▁Hinaptinmi	-11.0368
▁descanso	-11.0368
huacan	-11.0369
▁3:2	-11.037
▁emocional	-11.0371
▁tita	-11.0372
▁UNA	-11.0373
riza	-11.0375
▁independiente	-11.0379
nchej	-11.0379
nakamp	-11.0384
▁tapichápe	-11.0389
llanpi	-11.039
5.000	-11.039
▁crecer	-11.0391
▁NA	-11.0396
wiya	-11.0396
▁itla	-11.0398
▁desgracia	-11.04
▁jahuen	-11.04
▁enteron	-11.0401
▁nichwan	-11.0401
▁suyakuy	-11.0403
ixpan	-11.0404
▁estudiante	-11.0405
’̱	-11.0406
▁Cro	-11.0407
▁distancia	-11.041
▁amuyu	-11.0416
▁Bor	-11.0417
▁5:2	-11.0417
Jisk	-11.0418
▁suyuxa	-11.0419
mentos	-11.0421
▁evidente	-11.0421
▁Algunas	-11.0421
Li	-11.0422
ikuaágui	-11.0425
▁iporãitereíva	-11.0432
▁kasqankumanta	-11.0434
▁agradar	-11.0434
▁Pá	-11.0434
Name	-11.0435
kuérare	-11.0435
▁Díaz	-11.0439
▁convertido	-11.0442
▁Deuteronomio	-11.0451
▁tuviera	-11.0454
erãmo	-11.0459
mbyre	-11.0462
▁mensáhe	-11.0464
▁criatura	-11.0464
▁Amirika	-11.0464
▁dejaron	-11.0464
▁montaña	-11.0467
▁jú	-11.0467
▁empresas	-11.0467
▁oñondivepa	-11.047
▁rimayta	-11.0471
▁poli	-11.0473
▁oportunidades	-11.0473
▁Información	-11.0474
▁extraordinaria	-11.0474
sible	-11.0474
▁petición	-11.0475
nakapa	-11.0479
▁Sta	-11.0479
ninchikta	-11.0481
▁interna	-11.0481
▁yacharu	-11.0482
▁hardín	-11.0485
ãramo	-11.0485
▁Ñemo	-11.0489
▁publicación	-11.0494
inec	-11.0495
▁administración	-11.0496
▁medicina	-11.0496
mpiw	-11.0499
JO	-11.05
▁terrible	-11.0506
▁valores	-11.0509
ñä	-11.051
▁olvidar	-11.0511
▁Filipenses	-11.0511
tuqi	-11.0514
▁OÑE	-11.0515
▁liberar	-11.0517
Oĩ	-11.0517
▁echi	-11.0518
▁paraguaya	-11.0518
▁digo	-11.0522
▁1996	-11.0523
ores	-11.0524
▁reínte	-11.0524
▁columna	-11.0528
▁nisqankuna	-11.0529
Chi	-11.053
▁Isaias	-11.053
▁Josey	-11.0531
▁plaza	-11.0534
▁saya	-11.0536
itario	-11.0537
▁Vea	-11.0537
▁Tú	-11.0538
▁ypykuéra	-11.0539
tlalli	-11.0539
▁permita	-11.054
berg	-11.0543
▁dando	-11.0544
▁allinkunata	-11.0545
▁Flor	-11.0548
▁voluntario	-11.0549
▁sincroniza	-11.0549
▁aceptó	-11.0549
▁adapta	-11.055
▁cifra	-11.0551
▁indicó	-11.0551
▁rostro	-11.0551
▁tekotevẽva	-11.0551
▁pobreza	-11.0552
▁perdió	-11.0554
ñapataki	-11.0557
▁vencer	-11.0557
tlac	-11.0557
▁ABC	-11.056
▁wak	-11.056
▁PARA	-11.0561
poch	-11.0561
▁objetivos	-11.0567
▁válido	-11.0571
▁promover	-11.0571
ñotỹ	-11.0571
▁cheqni	-11.0581
▁audio	-11.0584
adora	-11.0585
ykita	-11.0585
BA	-11.0587
:1-3).	-11.0588
jára	-11.0589
▁viejo	-11.0593
ída	-11.0597
ñandú	-11.0597
▁suyuwa	-11.0597
kañy	-11.0598
▁mantenerse	-11.0601
▁salvo	-11.0602
̃	-11.0603
▁soldádo	-11.0603
▁chehegui	-11.0603
▁alemán	-11.0604
▁aceite	-11.0604
▁convertir	-11.0605
▁anteriores	-11.0608
▁orilla	-11.0608
▁Ñañeha	-11.0608
winak	-11.0609
▁ikatupyry	-11.061
liza	-11.0612
▁oveja	-11.0613
▁comporta	-11.0613
▁aprovecha	-11.0614
▁ñongatu	-11.0617
▁khu	-11.0617
▁organizaciones	-11.0618
▁hereda	-11.0618
▁descendencia	-11.062
sqankurayku	-11.0621
▁entidades	-11.0625
▁boda	-11.0629
▁riq	-11.0629
▁reciente	-11.063
traído	-11.0631
▁1958	-11.0632
▁Lingüísticas	-11.0634
▁fidelidad	-11.0635
▁posterior	-11.0635
▁musuq	-11.0636
▁Colorado	-11.0637
▁confía	-11.064
▁miraynin	-11.0645
ãngamýi	-11.0646
▁Barr	-11.0647
▁avavépe	-11.0647
▁demostrado	-11.0647
▁recuperar	-11.0649
▁hinaptinmi	-11.0652
▁crece	-11.0652
quili	-11.0653
▁comienza	-11.0657
▁veinte	-11.0658
▁ciertas	-11.0659
▁ansianokuéra	-11.0679
▁extranjera	-11.0679
nequi	-11.0679
Elee	-11.068
gido	-11.0682
▁propuesta	-11.0682
cci	-11.0682
▁SI	-11.0688
▁motla	-11.0689
▁asambleas	-11.069
▁paka	-11.069
▁liberación	-11.069
▁sukursál	-11.069
▁westíora	-11.069
▁golpea	-11.0691
spawa	-11.0692
▁misionero	-11.0694
▁iyo	-11.0694
▁Bro	-11.0698
▁casarse	-11.07
▁rurayta	-11.0701
▁obediencia	-11.0701
▁Clima	-11.0701
▁entero	-11.0701
pyty	-11.0703
waptinchik	-11.0708
▁límites	-11.071
▁comienzo	-11.0712
▁Ministro	-11.0712
dul	-11.0715
▁HAG̃UA	-11.0723
▁Pensemos	-11.0723
▁usando	-11.0724
▁obedece	-11.0728
▁ike	-11.0729
▁especiales	-11.0733
▁11:2	-11.0738
▁descubr	-11.0738
wasun	-11.0741
ight	-11.0742
▁victoria	-11.0744
▁ohasá	-11.0746
▁federal	-11.0746
▁1/1	-11.0747
▁piedras	-11.075
▁allintam	-11.0756
▁Concepción	-11.0758
▁riremínte	-11.076
▁muchacho	-11.0762
aprovecha	-11.0765
▁Jaskara	-11.0769
▁cocina	-11.077
osamente	-11.0772
▁munasqanta	-11.0775
▁hekopete	-11.0783
mático	-11.0788
▁chembo	-11.0789
▁1922	-11.0791
▁jawékibo	-11.0792
▁constantemente	-11.0793
▁oikótava	-11.0797
tendido	-11.0797
Santiago	-11.0797
▁expresó	-11.0799
▁Kuna	-11.0799
nista	-11.08
▁fácilmente	-11.0803
▁churinkuna	-11.0806
xtla	-11.0806
▁dedicado	-11.0808
▁Sánchez	-11.081
guasúpe	-11.0811
▁ÑANE	-11.0812
▁hasýva	-11.0813
▁Imp	-11.0816
▁abandonar	-11.0818
▁reciben	-11.0819
▁religiones	-11.0821
▁Víctor	-11.0821
▁iñamígo	-11.0821
▁haĝua	-11.0821
▁mboajepyre	-11.0821
▁sorprende	-11.0821
▁solución	-11.0822
▁cadena	-11.0822
▁tle	-11.0824
vende	-11.0825
▁sexuales	-11.0827
▁aconseja	-11.0833
▁ŕa	-11.0833
▁incon	-11.0834
▁debajo	-11.0836
▁odesidí	-11.0839
▁ambué	-11.0839
▁calma	-11.0842
prediká	-11.0843
▁fariseo	-11.0844
▁prometió	-11.0844
▁misioneros	-11.085
▁pasando	-11.0853
▁kanchik	-11.0854
▁oguahë	-11.0855
▁enterovépe	-11.0855
▁peor	-11.0857
naykichikpaq	-11.0858
▁tribunal	-11.0858
▁lawman	-11.0858
▁disc	-11.086
▁riquezas	-11.0861
▁1979	-11.0862
ibera	-11.0866
▁uñacht	-11.0866
▁vendrá	-11.0866
▁repensa	-11.0867
puniw	-11.087
kastiga	-11.087
jki	-11.087
▁Asu	-11.0872
▁ikanta	-11.0875
▁humildes	-11.0875
yapxi	-11.0876
▁defensa	-11.0877
permiti	-11.0877
▁pópe	-11.0881
yvy	-11.0881
äwinaka	-11.0882
▁Valle	-11.0883
CH	-11.0887
▁tendencia	-11.0888
▁Tito	-11.0892
▁Hé	-11.0893
▁ojapóma	-11.0893
Jesús	-11.0898
▁aguante	-11.09
="{	-11.09
▁jalee	-11.09
▁contento	-11.0902
▁Mokõi	-11.0905
kasai	-11.0905
▁oikotaha	-11.091
▁lágrima	-11.091
apyeterei	-11.0911
cciona	-11.0913
dú	-11.0914
▁tentación	-11.0922
▁Suyukuna	-11.0922
Máva	-11.0927
UR	-11.0928
▁ñuqanchik	-11.0929
ético	-11.0932
▁utilizado	-11.0932
▁folleto	-11.0933
▁judiokuna	-11.0933
ptinkuqa	-11.0933
▁vecinos	-11.0934
versión	-11.0934
pohual	-11.0935
▁qan	-11.0935
Núm	-11.0935
▁pastores	-11.0938
ehao	-11.0942
▁ministra	-11.0944
▁señas	-11.0944
▁pedirle	-11.0947
▁amable	-11.0947
centr	-11.0953
▁automáticamente	-11.0957
▁españoles	-11.0962
pytũ	-11.0964
▁diaria	-11.0965
▁kananchikpaq	-11.0965
▁resucitar	-11.0966
▁enkuénta	-11.0966
▁israelita	-11.0969
▁jero	-11.0973
▁My	-11.0975
▁inmoral	-11.0975
▁dignidad	-11.0977
▁Opavave	-11.0977
▁droga	-11.0978
▁tupachi	-11.0979
▁Marta	-11.098
▁natekotevẽi	-11.0981
▁justa	-11.0981
▁funcionarios	-11.0986
▁contribuir	-11.0989
▁jeman	-11.099
▁sipaskuna	-11.0995
▁okyhyje	-11.0995
▁Chaco	-11.0997
▁Hugo	-11.0998
ñiq	-11.0999
▁artista	-11.1001
▁lyi	-11.1002
nanchikmi	-11.1002
guí	-11.1006
syry	-11.1011
▁teniendo	-11.1011
▁cualquiera	-11.1013
▁ñanendive	-11.1022
▁1918	-11.1025
▁plantea	-11.1025
▁memby	-11.1027
▁Oñeha	-11.1027
▁Iro	-11.1028
▁raíz	-11.1034
▁hembirekópe	-11.1034
Peteĩ	-11.1035
▁llaqtakuna	-11.1035
▁falsos	-11.1037
▁llakisqa	-11.1043
▁ukanakax	-11.1044
rekórõ	-11.1045
▁creyente	-11.1045
▁4:8).	-11.1047
▁110	-11.1049
▁Provincia	-11.1051
▁llaqtaqa	-11.1051
▁bebé	-11.1052
▁1974	-11.1052
▁Jean	-11.1055
▁Martínez	-11.1056
▁religioso	-11.1056
▁Arte	-11.106
týpe	-11.1062
▁ordenó	-11.1063
▁1955	-11.1065
▁cualidad	-11.1065
▁Cincuenta	-11.1067
cedió	-11.1067
ntyarori	-11.1069
▁cruza	-11.1069
▁extraña	-11.1071
▁tic	-11.1073
▁ñamboyke	-11.1073
▁hukmanyasqa	-11.1077
▁hábito	-11.1079
▁osheki	-11.1079
▁karunchaku	-11.1079
▁machi	-11.108
ẽrendúi	-11.108
▁ruru	-11.1083
▁Willa	-11.1084
▁1988	-11.1087
▁flores	-11.109
▁avanzada	-11.109
▁Estamos	-11.1093
▁Satanas	-11.1097
nakampi	-11.1097
visita	-11.1098
ãhára	-11.1101
▁nañande	-11.1103
▁omoneĩ	-11.1106
▁kasqanrayku	-11.1106
KO	-11.1106
▁poderosa	-11.1106
▁Churin	-11.1107
▁mitad	-11.1108
▁dirigió	-11.1113
▁Dijo	-11.1114
▁alguno	-11.1114
▁manifestar	-11.1114
▁ndoiko	-11.1116
▁multiplicado	-11.1116
▁llu	-11.1117
▁Teo	-11.1118
▁acontecimientos	-11.1119
▁tiemponpi	-11.112
▁solamente	-11.1121
▁1:3	-11.1122
▁chinka	-11.1123
▁mése	-11.1123
▁jere	-11.1124
▁Hyãsia	-11.1124
▁Trinidad	-11.1124
▁intención	-11.1124
PÑS	-11.1124
▁teoría	-11.1125
▁producir	-11.1127
▁huchapaku	-11.1129
▁tarpuy	-11.1129
▁1945	-11.1131
pōhual	-11.1136
visión	-11.1136
www	-11.1136
▁qhipa	-11.1136
licia	-11.1138
▁guei	-11.1141
▁kuyakuq	-11.1142
▁sana	-11.1143
▁tsu	-11.1154
front	-11.1154
▁serviq	-11.1156
▁rurana	-11.1157
▁añade	-11.1158
▁chayamu	-11.1161
▁Indígenas	-11.1163
▁Bible	-11.1167
Lev	-11.117
▁Qatiqnin	-11.117
▁TAKIKUNA	-11.117
▁primérope	-11.117
▁ocurre	-11.1173
▁ruwasqanku	-11.1174
▁vivían	-11.1175
▁damos	-11.1176
▁reqsisqa	-11.1176
▁jára	-11.1179
Eze	-11.118
kyhyjé	-11.1181
▁omoteneuh	-11.1181
▁vuelva	-11.1181
rekópe	-11.1181
itéma	-11.1184
▁angel	-11.1187
▁estrellas	-11.1188
▁6:4	-11.1188
▁ñemoneĩ	-11.1189
▁qawasun	-11.119
fó	-11.1193
▁reacción	-11.1193
▁munaq	-11.1194
▁sucesos	-11.1194
▁comercial	-11.1194
▁hoja	-11.1199
▁ikangy	-11.1199
:22,	-11.1201
▁cambió	-11.1204
▁anuncio	-11.1204
▁piluta	-11.1204
▁runakunawan	-11.1205
▁66	-11.1207
▁allinpaq	-11.1208
▁experto	-11.1216
cú	-11.1217
irû	-11.1221
▁ndoikuaa	-11.1223
jerúre	-11.1226
▁alcanza	-11.1227
▁recuerdo	-11.1227
▁apropiado	-11.1228
ramóva	-11.1228
▁trate	-11.123
nez	-11.1231
▁55:	-11.1232
▁comparti	-11.1234
▁cookies	-11.1238
rrespeta	-11.1238
▁jopói	-11.1239
▁urqum	-11.124
énta	-11.1241
▁occe	-11.1243
kuynin	-11.1243
ag̃agua	-11.1244
▁barro	-11.1247
▁iñermanokuéra	-11.125
▁tö	-11.1251
▁queridos	-11.1255
bida	-11.1256
▁qulla	-11.1257
▁Isabel	-11.1262
▁Rebeca	-11.1262
harakuéra	-11.1267
aporãva	-11.1267
▁watap	-11.1268
érõ	-11.1269
▁correspondiente	-11.1273
▁Horacio	-11.1273
▁omoingove	-11.1273
▁terreno	-11.1274
▁casarasqa	-11.1275
▁yehuatl	-11.1276
▁editor	-11.1277
▁Mel	-11.1277
▁irnaqa	-11.128
▁continua	-11.1282
▁kachka	-11.1285
▁rresponsavilida	-11.1285
lencia	-11.1291
taanan	-11.1292
▁unidos	-11.1293
meran	-11.1294
▁principalmente	-11.1294
▁Aymara	-11.1297
aqmi	-11.1298
▁iken	-11.13
▁1997	-11.1304
tter	-11.1305
▁Hetaiterei	-11.1305
▁inclina	-11.1308
▁individual	-11.1308
▁llamaba	-11.1311
tze	-11.1313
▁devoción	-11.1314
0;	-11.1315
▁Otro	-11.1315
▁vaieterei	-11.1316
▁1971	-11.1317
yrakuéra	-11.1319
▁desafío	-11.132
▁castigo	-11.132
▁serpiente	-11.132
▁Ojapo	-11.132
upé	-11.1323
▁eiro	-11.1324
▁jaikove	-11.1324
firma	-11.1325
▁ponen	-11.1326
▁PÑS	-11.1331
▁Awya	-11.1332
jogueraha	-11.1334
▁ichapas	-11.1336
▁54	-11.1336
▁qaway	-11.1337
▁peteĩteĩ	-11.1341
▁Wasi	-11.1343
▁ponga	-11.1344
▁piel	-11.1345
▁aycha	-11.1349
▁1965	-11.1349
▁montañas	-11.1351
▁munayninta	-11.1352
▁omoañete	-11.1355
▁150	-11.1356
%2$	-11.1356
▁73	-11.1358
murqa	-11.1359
▁útiles	-11.1361
BI	-11.1362
▁relata	-11.1364
▁tradicional	-11.1366
ỹijóta	-11.1374
▁ojeporavo	-11.1375
▁Servicio	-11.1375
uili	-11.1376
Peẽ	-11.1377
▁dólares	-11.1378
kirirĩ	-11.1378
▁thoki	-11.1378
èx	-11.1384
▁Siria	-11.1385
▁oĩrõ	-11.1386
▁jepuru	-11.1387
▁resolución	-11.1389
▁ambuéva	-11.1392
▁15:1	-11.1393
▁jeporavo	-11.1394
▁ñaporo	-11.1394
▁barco	-11.1397
▁nisqanpi	-11.1397
▁jehechauka	-11.1398
hechajey	-11.14
Diospa	-11.14
▁Ph	-11.1407
▁utj	-11.1408
▁1975	-11.1409
hayhúva	-11.1413
mopyenda	-11.1414
Deuteronomio	-11.1415
▁Tres	-11.1419
▁oinxon	-11.1422
▁permitirá	-11.1422
▁corazones	-11.1425
▁ayllun	-11.1425
▁XIV	-11.1425
▁Epáña	-11.1425
▁Plantilla	-11.1425
▁mandamientos	-11.1427
▁avanza	-11.1427
▁favorece	-11.1428
▁yachachirqa	-11.1428
▁destino	-11.1428
▁500	-11.1428
▁considerar	-11.1429
PRE	-11.1433
▁̱u	-11.1433
▁corregi	-11.1435
aguanta	-11.1436
▁maneja	-11.1437
▁muere	-11.1441
▁qawarqa	-11.1442
▁decimos	-11.1443
<	-11.1443
▁hoki	-11.1444
▁hablado	-11.1445
▁nge	-11.1445
perfékto	-11.1448
▁Joseph	-11.1448
▁distinto	-11.1448
▁iñ	-11.1448
▁almacena	-11.1449
▁yuyayniyoq	-11.1449
Commons	-11.1451
▁perspectiva	-11.146
Diccionario	-11.146
▁kunjam	-11.1462
▁qepancha	-11.1462
▁Diostam	-11.1463
▁“%1$	-11.1466
▁imitãva	-11.1467
shon	-11.147
▁viúda	-11.1472
▁Nobel	-11.1472
ñembyaty	-11.1472
▁keska	-11.1473
êva	-11.1475
▁sembrar	-11.1475
rson	-11.1476
▁luc	-11.1479
llanta	-11.1481
guáicha	-11.1482
▁vigila	-11.1482
▁goberna	-11.1483
▁técnico	-11.1483
▁willawanchik	-11.1486
▁muni	-11.149
▁consecuencia	-11.149
▁derrama	-11.149
▁ndahe	-11.1494
kunqa	-11.1496
▁qaya	-11.1497
ychikchu	-11.1502
kunamantam	-11.1504
▁moõpa	-11.1505
tlanahuatil	-11.1506
▁contigo	-11.1508
▁examina	-11.1509
yninku	-11.1518
▁84	-11.1519
▁doctrina	-11.1519
▁permitido	-11.1519
irũ	-11.1523
ykachi	-11.1527
fico	-11.1527
▁agradecidos	-11.1529
▁Pampa	-11.153
▁recibimos	-11.1531
ivers	-11.1532
▁porãvéta	-11.1534
▁ní	-11.1534
▁oguata	-11.1538
guenohẽ	-11.1539
▁már	-11.1541
▁verde	-11.1543
▁Mala	-11.1549
▁oikovéva	-11.1552
▁Rojo	-11.1553
▁continúa	-11.1554
▁ofreció	-11.1555
▁Unos	-11.1555
▁ricos	-11.1556
mbohovai	-11.1557
▁qawachiwanchik	-11.1557
IDAD	-11.1559
▁iñimportantete	-11.1563
▁kaqnin	-11.1565
▁crédito	-11.1566
▁omomýi	-11.1566
▁Espáña	-11.1566
▁cuesta	-11.1568
▁ñañeñandu	-11.1572
▁hentekuéra	-11.1573
▁ejecución	-11.1578
▁Judea	-11.1579
▁tupan	-11.1579
▁altar	-11.1579
▁hueso	-11.158
▁mikuy	-11.1581
▁soportar	-11.1585
mpix	-11.1586
▁Cuenta	-11.1588
Hab	-11.1589
▁opoko	-11.1589
▁tlahtol	-11.159
▁situwa	-11.159
▁ŕe	-11.1591
▁hñä	-11.1591
▁apaqkuna	-11.1593
inter	-11.1593
▁pachapaq	-11.1595
▁waray	-11.1595
guahẽ	-11.1596
▁Auto	-11.1598
▁14:1	-11.1599
▁millas	-11.1603
▁ukjamaraki	-11.1606
▁conversa	-11.1608
▁wara	-11.161
▁Grigurya	-11.1614
asepta	-11.1614
promete	-11.1615
volv	-11.1616
▁markanx	-11.1617
▁tlal	-11.162
▁JMP	-11.1626
▁ndoipotái	-11.1626
▁logró	-11.1626
▁chendive	-11.1626
▁opurahéiva	-11.1626
▁São	-11.1627
pehẽ	-11.1627
▁simitam	-11.1628
▁permanece	-11.1628
▁kuyakuynin	-11.1629
FI	-11.1632
▁1961	-11.1634
▁circun	-11.1638
▁impoiji	-11.1638
▁animó	-11.1639
▁1952	-11.1645
▁warmacha	-11.1646
▁watuku	-11.1647
▁Acab	-11.1652
▁tarikun	-11.1654
▁representantes	-11.1654
áke	-11.1654
▁planes	-11.1655
▁keyo	-11.1655
NDI	-11.1657
tores	-11.1659
sqankuman	-11.1661
▁mantenernos	-11.1662
▁Ricardo	-11.1662
▁seguía	-11.1666
▁trabajando	-11.1667
▁iuh	-11.1668
▁jamás	-11.1669
ruspan	-11.1671
▁yoiti	-11.1671
▁venía	-11.1672
▁tukuq	-11.1674
ĝ	-11.1674
▁Sãmbyhyhára	-11.1674
▁yapuy	-11.1675
gt	-11.1678
▁1949	-11.168
▁patron	-11.168
▁kampa	-11.1681
▁sasin	-11.1681
▁pantay	-11.1682
ilhui	-11.1682
▁Éxodo	-11.1682
▁convertirse	-11.1685
-16).	-11.1691
▁reflexionar	-11.1693
▁1976	-11.1694
▁jajapóta	-11.1698
▁motor	-11.1701
capítulo	-11.1702
sqankuwan	-11.1705
▁pobre	-11.1707
▁1944	-11.1708
▁minutos	-11.171
monge	-11.171
▁parecido	-11.171
Cuáles	-11.1711
eguasú	-11.1714
▁prensa	-11.1719
▁kuyakuywan	-11.1719
kóva	-11.1722
▁Kuatiarogue	-11.1722
▁satisfacción	-11.1722
▁"¿	-11.1724
▁ninkata	-11.1727
▁1983	-11.1731
▁Pueblo	-11.1734
▁hacían	-11.1734
tribución	-11.1735
▁1973	-11.174
vert	-11.1744
▁puévlope	-11.1745
▁saywitu	-11.1746
▁silencio	-11.1747
jái	-11.1747
▁Social	-11.1749
rurqani	-11.1749
▁esperan	-11.175
STI	-11.1751
marino	-11.1753
▁fines	-11.1753
wasqanchikta	-11.1754
évare	-11.1755
▁iporãve	-11.1756
▁vakapipopo	-11.1759
▁apareció	-11.1759
▁Qhapaq	-11.1759
▁iñiq	-11.1759
▁ocurrir	-11.1759
▁reprodu	-11.176
Juec	-11.1765
JAP	-11.1769
mbokatupyry	-11.177
▁Madrid	-11.1771
▁presidencia	-11.1771
▁risqanman	-11.1771
▁pecadores	-11.1771
▁somete	-11.1771
▁guardia	-11.1772
▁jóni	-11.1773
JA	-11.1774
▁sincero	-11.1776
▁andar	-11.178
enonde	-11.1782
▁Paraguaýpe	-11.1783
▁diversos	-11.1783
▁istória	-11.1783
ruspa	-11.1783
▁Nabot	-11.1783
▁Umalliq	-11.1783
▁buscan	-11.1786
▁atichwan	-11.1787
▁1964	-11.1789
▁1977	-11.1791
▁rréino	-11.1794
▁isrraelítape	-11.1795
ruptin	-11.1795
▁versíkulo	-11.1795
▁absoluta	-11.1795
▁Suntur	-11.1795
▁Había	-11.1796
▁mayni	-11.18
▁opave	-11.1801
▁ovendesi	-11.1807
▁ojeporú	-11.1809
▁James	-11.1814
▁main	-11.1819
▁ñemurã	-11.1819
▁declaró	-11.182
▁compromet	-11.1822
▁piensay	-11.1825
▁mapo	-11.1827
▁reemplaz	-11.1832
▁griega	-11.1832
▁Wiñay	-11.1832
▁entró	-11.1835
acti	-11.1835
fá	-11.1839
▁superficie	-11.1844
▁ingreso	-11.1844
▁lecciones	-11.1848
▁Puka	-11.1854
▁rabi	-11.1855
itereíva	-11.1855
sérõ	-11.1856
▁Pérez	-11.1856
▁ñemoñare	-11.1858
▁angelkuna	-11.1858
myanyhẽ	-11.1868
▁parientes	-11.1868
▁preferencias	-11.1868
▁sobrevivir	-11.1868
chiua	-11.1868
▁orrespeta	-11.1868
pavẽ	-11.1869
▁aranduka	-11.1869
▁ukja	-11.1872
▁1956	-11.1875
▁1962	-11.1877
▁oip	-11.1878
▁asignación	-11.1878
▁kutipim	-11.1879
▁Uk	-11.188
▁Crónicas	-11.1881
joavy	-11.1881
▁serían	-11.1882
▁organizado	-11.1884
▁originario	-11.1885
▁votos	-11.1886
aguy	-11.1887
▁Jach	-11.1891
▁kawsakuyta	-11.1893
▁informó	-11.1893
▁refugio	-11.1893
▁humilla	-11.1893
▁alcalde	-11.1893
▁isiervokuéra	-11.1894
▁convence	-11.1894
cayotl	-11.1895
▁Antikunapi	-11.1896
▁Todas	-11.1897
▁concede	-11.1898
▁rurananchik	-11.1899
▁griégo	-11.1905
▁Satanaspa	-11.1906
▁decirle	-11.1907
▁Tenía	-11.191
▁4:6	-11.1911
▁arigua	-11.1912
▁Munisipyu	-11.1918
▁oimeraẽva	-11.1918
habilita	-11.1919
▁Libro	-11.1921
▁ñañemoĩ	-11.1922
ò	-11.1925
▁sincera	-11.1925
ptikiqa	-11.1928
▁potĩ	-11.1928
▁kuyu	-11.1929
▁pawqar	-11.193
▁Eliminar	-11.193
MANTA	-11.1931
▁103	-11.1935
runku	-11.1937
tinin	-11.1939
▁sentirse	-11.194
llaraq	-11.194
▁individuo	-11.1942
▁vídeo	-11.1943
▁kantara	-11.1943
▁convenci	-11.1946
ptinkum	-11.1947
nkumanta	-11.1951
▁Lázaro	-11.1955
▁traductor	-11.1955
▁ñapensá	-11.1955
▁Belén	-11.1955
tiene	-11.1956
▁axcan	-11.1957
▁kusisqam	-11.1959
▁Eclesiastés	-11.1966
▁Efraín	-11.1967
▁relativa	-11.1967
▁engaño	-11.1968
▁opción	-11.1968
▁omohu	-11.1972
▁pekao	-11.1975
▁63	-11.1975
▁generales	-11.1976
▁activo	-11.1979
▁XX	-11.1979
ptinpas	-11.1979
▁advirtió	-11.1979
▁yawar	-11.198
▁kamachisqan	-11.1984
▁Bur	-11.1986
ándonos	-11.1987
▁Betélpe	-11.1992
▁rastreadores	-11.1992
▁risirwa	-11.1992
▁XII	-11.1992
▁consciente	-11.1993
ỹijó	-11.1997
▁1946	-11.1999
gráfica	-11.1999
scentralizacion	-11.2004
▁accidente	-11.2004
▁disípulo	-11.2004
▁ataques	-11.2005
fé	-11.2006
▁52	-11.2009
äw	-11.2012
▁Bajo	-11.2013
tiempo	-11.2014
▁satisfacer	-11.2017
progres	-11.2023
rdin	-11.2023
pxiwa	-11.2026
▁garantía	-11.2029
▁reconocimiento	-11.2029
▁Jonatán	-11.2029
▁Apohare	-11.2029
▁Diputado	-11.2031
▁Colosenses	-11.2031
▁oculta	-11.2032
warqanchik	-11.2033
llapaq	-11.2036
▁TE	-11.2036
▁Cantón	-11.2039
▁Ky	-11.204
Nda	-11.2041
▁michĩmi	-11.2044
huiz	-11.2045
▁Sichu	-11.2045
▁yachayniyoq	-11.2045
▁ytoca	-11.2045
▁Costa	-11.2046
gura	-11.2049
▁descubrir	-11.2049
▁otopa	-11.2049
▁1967	-11.205
▁kamachikuy	-11.2054
▁Krus	-11.2056
▁brinda	-11.2057
▁jarekóva	-11.2059
▁capacita	-11.2061
perdon	-11.2064
▁Buscar	-11.2065
▁maduro	-11.2067
kotevê	-11.2069
▁1943	-11.2073
▁verdaderamente	-11.2078
▁isiervokuérape	-11.2078
▁ohayhúva	-11.2078
▁compositor	-11.2079
▁cárcel	-11.2079
▁Qawa	-11.2079
▁suntur	-11.208
▁mono	-11.208
▁hacernos	-11.2081
▁omaña	-11.2081
▁24:14	-11.2082
▁metro	-11.2083
▁unquy	-11.2085
▁1972	-11.2085
nqachu	-11.2087
scribir	-11.2088
▁oñemohenda	-11.2089
▁obd	-11.2089
ryrýi	-11.2092
▁Ñu	-11.2093
ninchikpi	-11.2094
▁supera	-11.2095
▁Imayna	-11.2096
mondó	-11.2098
▁kasqanraykum	-11.2099
▁cumplió	-11.2101
quién	-11.2102
▁ojapoháicha	-11.2103
▁osalva	-11.2103
▁Miqueas	-11.2104
▁agrada	-11.2104
▁beneficio	-11.2105
rmón	-11.2105
siwi	-11.2107
dd	-11.2108
mail	-11.2109
éiramo	-11.2109
▁56	-11.211
▁1969	-11.2113
▁hice	-11.2116
▁inspirada	-11.2117
▁vuelto	-11.2117
▁alumnos	-11.2117
▁Kuatia	-11.2117
▁payman	-11.2117
chtli	-11.2118
▁hawkayay	-11.2118
▁reinado	-11.2119
▁comparación	-11.2119
▁jark	-11.2119
prob	-11.2122
▁1953	-11.2123
▁yatiq	-11.2124
▁tratando	-11.2124
▁28:19	-11.2127
▁sabia	-11.2129
▁scasca	-11.213
▁profesional	-11.2141
▁juventud	-11.2142
▁París	-11.2142
▁encontraba	-11.2143
▁pierde	-11.2147
hê	-11.2148
▁verlo	-11.215
▁kuñanguéra	-11.2156
▁Buliwyapi	-11.2159
▁vu	-11.216
sãmbyhy	-11.2162
▁oporombo	-11.2162
▁1936	-11.2164
▁Davídpe	-11.2167
▁willakuykuna	-11.2168
▁unión	-11.2169
▁tren	-11.2169
▁kilo	-11.217
▁Vyretáña	-11.218
▁segúro	-11.218
▁6:9	-11.2181
▁hukkunata	-11.2184
rekói	-11.2185
Este	-11.2188
▁hagamos	-11.219
▁Michael	-11.2192
▁Descarga	-11.2192
SIÓN	-11.2196
▁16:1	-11.2196
▁recurso	-11.2196
rovia	-11.2197
kurqani	-11.2198
▁gotyove	-11.2201
▁Voice	-11.2204
Ho	-11.2205
▁BBC	-11.2205
▁traduce	-11.2205
▁Ukhama	-11.2205
▁doktór	-11.2205
▁atender	-11.2206
▁astawanraq	-11.2208
▁document	-11.2212
▁desobedec	-11.2218
▁arroja	-11.2219
▁termin	-11.2223
!"	-11.223
eichaguápa	-11.223
▁Recordemos	-11.223
▁conquista	-11.2231
pyah	-11.2234
▁directo	-11.2234
▁qellqasqa	-11.2235
contra	-11.2237
baonra	-11.2238
▁oina	-11.224
▁PORTADA	-11.2243
▁aymuray	-11.2243
▁liverta	-11.2243
▁arýpe	-11.2245
Éx	-11.2252
▁iniciar	-11.2255
bores	-11.2257
▁marangatu	-11.2258
Ikatúpa	-11.2264
▁rembiapokue	-11.2264
▁llaqtanta	-11.2266
▁ocupado	-11.2266
▁Municipal	-11.2266
▁ayer	-11.2268
▁ninmi	-11.2269
yriway	-11.2269
spanpas	-11.227
▁oiporúva	-11.2271
▁rebelión	-11.2281
▁īhuān	-11.2281
▁Toda	-11.2282
potáva	-11.2285
▁salario	-11.2286
catzin	-11.2287
▁municipal	-11.2294
▁phuqha	-11.2295
▁bloqueado	-11.2298
LU	-11.23
▁sasaw	-11.2302
ética	-11.2304
▁Rama	-11.2306
▁compromiso	-11.2307
▁Ispaña	-11.2307
▁cueva	-11.2307
▁1963	-11.2314
▁1947	-11.2316
posit	-11.2323
▁maroni	-11.2325
▁ipuévlope	-11.2326
▁ijapu	-11.2328
ukáva	-11.2329
scrito	-11.2329
▁ojapóvare	-11.233
▁kawsayta	-11.2331
▁ojegueraha	-11.2335
▁apopyre	-11.2339
▁paywan	-11.2341
kuaáma	-11.2344
▁Testamento	-11.2346
▁techaukaha	-11.2346
▁observar	-11.2346
▁ukampirus	-11.2346
▁JNE	-11.2347
▁mañakurqa	-11.2348
▁Lot	-11.2355
mú	-11.2355
▁ojeiko	-11.2355
▁básica	-11.2358
▁mokõivéva	-11.2361
▁regocija	-11.2361
▁azul	-11.2364
kichik	-11.2365
▁destina	-11.2367
▁relacionados	-11.2368
▁mandu	-11.2368
▁diferénte	-11.2371
protehe	-11.2371
▁emperador	-11.2372
▁Nadie	-11.2372
▁Ejemplopaq	-11.2372
▁obligado	-11.2373
▁XVI	-11.2373
▁warmiqa	-11.2374
▁discípulo	-11.2378
▁itiémpo	-11.2384
▁aruskip	-11.2385
▁manantial	-11.2385
aibo	-11.2386
▁bá	-11.239
▁llevaron	-11.2393
▁ndoro	-11.2393
èq	-11.2396
▁kanqaku	-11.2396
ː	-11.2397
▁prekursorádo	-11.2397
▁pronuncia	-11.2397
▁ohótava	-11.2397
kä	-11.2398
▁markam	-11.2402
▁kilómetro	-11.2404
▁Common	-11.2404
Seguro	-11.2406
▁guyra	-11.2408
diente	-11.2408
▁Maestro	-11.241
mbopapapy	-11.241
▁aldea	-11.2411
Apoc	-11.2412
antsi	-11.2412
NC	-11.2414
ñande	-11.2414
▁yanapachiku	-11.2418
▁qull	-11.2419
▁Chaynapim	-11.242
táramo	-11.2422
▁Soberano	-11.2436
▁polvo	-11.2436
▁sufrido	-11.2436
▁mañakuy	-11.2439
EL	-11.244
▁trabajan	-11.244
Araka	-11.2442
▁hapichakuérape	-11.2442
▁paymanta	-11.2444
▁llakipaya	-11.2449
▁vosotros	-11.2449
▁alcohol	-11.2449
▁podremos	-11.2449
▁instalación	-11.2449
▁atipanke	-11.2449
▁consola	-11.2456
▁dá	-11.2458
▁Jesucrísto	-11.2462
▁HE	-11.2466
▁Tembi	-11.2467
▁bé	-11.2473
▁oikéva	-11.2475
▁intento	-11.2476
▁jahayhuha	-11.2477
▁Piense	-11.2479
rresivi	-11.2479
▁Ñañe	-11.248
▁jejopy	-11.2482
▁seguido	-11.2487
▁jepysokue	-11.2488
▁yuritayna	-11.2488
▁yatich	-11.2491
▁Kád	-11.2491
▁Emboguejy	-11.2492
mbyrý	-11.2494
▁amistadninchik	-11.2494
▁hablamos	-11.2496
▁Oime	-11.2498
▁veamos	-11.2499
▁Ó	-11.25
▁Prof	-11.25
▁Municipio	-11.2501
▁fre	-11.2509
▁1985	-11.2509
lect	-11.2512
▁Agustín	-11.2514
▁frío	-11.2514
▁dormir	-11.2514
▁Ruvicha	-11.2515
manifest	-11.2516
▁disco	-11.2521
ãjey	-11.2524
KI	-11.2527
▁Colegio	-11.2527
▁Jefté	-11.2527
▁negar	-11.2528
▁cámara	-11.2528
▁Warma	-11.2529
Estoy	-11.2529
▁oñemboja	-11.2531
▁osegí	-11.2533
▁plena	-11.2535
tapat	-11.2538
▁ukhax	-11.2539
▁izquierda	-11.254
▁obstáculo	-11.254
▁actúa	-11.254
▁vaígui	-11.2541
▁millón	-11.2542
▁pusi	-11.2544
▁Mag	-11.2551
jina	-11.2552
▁Regional	-11.2553
▁abuela	-11.2553
▁mezcla	-11.2553
▁Roberto	-11.2555
▁alabanza	-11.2555
▁actualización	-11.2556
▁Habla	-11.2556
▁Asá	-11.2557
CC	-11.2558
wasqanchikmanta	-11.2559
▁Qam	-11.2561
▁Chuya	-11.2564
▁Párrafo	-11.2567
▁ñanderesarái	-11.2567
▁naiporãi	-11.257
▁historiador	-11.2577
▁Londres	-11.258
▁Cul	-11.258
▁extremo	-11.258
▁kunatix	-11.2581
▁ikanai	-11.2584
▁tunka	-11.2585
▁Qo	-11.2586
siñ	-11.2587
▁jina	-11.259
▁apenas	-11.2592
▁corrupción	-11.2593
▁kuñataĩ	-11.2593
▁jehaipyre	-11.2594
▁justifica	-11.2597
▁etc	-11.2599
pondrá	-11.26
▁1957	-11.2601
▁estudiaq	-11.2601
▁Carmen	-11.2602
▁shima	-11.2604
▁misionéro	-11.2606
▁Historia	-11.2606
americano	-11.2607
▁sacha	-11.2609
▁1920	-11.2611
▁COR	-11.2614
▁Beni	-11.2616
▁mboy	-11.2619
▁Colombia	-11.2619
▁huerta	-11.2624
▁Kha	-11.2627
marangatu	-11.2631
▁qayllanpi	-11.2633
▁Eheka	-11.2633
▁oficiales	-11.2637
kuái	-11.2639
▁Fra	-11.2641
▁Og̃uahẽ	-11.2642
KENA	-11.2646
:15,	-11.2646
▁Mexicanos	-11.2647
▁Joel	-11.2649
▁1954	-11.2653
tlahtōlli	-11.2657
▁Desarrollo	-11.2659
▁Éfeso	-11.2659
▁ikatupyrýva	-11.2659
▁diera	-11.2659
▁oñemopu	-11.266
▁deberían	-11.2661
▁chaskirqa	-11.2662
▁enoja	-11.2662
▁impuestos	-11.2667
potĩ	-11.2669
▁Plurinacional	-11.2672
▁ministerial	-11.2672
▁Térã	-11.2675
▁trato	-11.2675
▁oipurúva	-11.2677
▁cercano	-11.2678
▁pudieran	-11.2679
tuqit	-11.2682
▁ribojo	-11.2686
Quieres	-11.2687
▁cenca	-11.2694
▁tapichakuéra	-11.2696
▁manifiesta	-11.2699
▁Wak	-11.2702
▁tukupay	-11.2704
Ĩ	-11.2712
▁ñuhã	-11.2712
▁inunda	-11.2713
ANR	-11.2717
▁catca	-11.2718
▁elimina	-11.2721
▁masnin	-11.2721
oheja	-11.2722
▁ogana	-11.2723
▁cumplido	-11.2723
▁espiritualidad	-11.2724
▁27).	-11.2724
▁rikchanachiy	-11.2725
▁opaga	-11.2725
▁sugerencias	-11.2726
▁recién	-11.2726
▁tendremos	-11.2726
▁murieron	-11.2726
▁mbyky	-11.2726
▁jarrespeta	-11.2726
▁xobonko	-11.2727
-16	-11.2731
▁manañam	-11.2731
▁ñahendu	-11.2735
▁vaikue	-11.2738
▁egipcio	-11.2739
▁ndovaleiha	-11.2739
▁cumpla	-11.2739
pɨ	-11.2739
-17).	-11.274
▁Wakinpiqa	-11.2741
▁cedro	-11.2744
▁Ikatúpa	-11.2745
jeite	-11.2746
▁Campo	-11.2748
▁3:16	-11.2754
▁upeicha	-11.2765
▁frontera	-11.2766
▁jaipuru	-11.2766
▁entidad	-11.2768
▁presentación	-11.2773
▁cantar	-11.2774
▁wayra	-11.2776
▁anunció	-11.2779
▁liberado	-11.2779
:24,	-11.2782
-11).	-11.2785
monde	-11.2785
▁correctamente	-11.2787
▁1968	-11.2788
▁Cerro	-11.2789
▁víno	-11.2791
:19,	-11.2792
▁Russell	-11.2793
▁jesussen	-11.2793
▁Omombe	-11.2794
▁llegada	-11.2801
▁kasukuspa	-11.2801
▁Toma	-11.2802
ZA	-11.2803
▁convierte	-11.2806
▁traducir	-11.2807
tirori	-11.2808
ninkupi	-11.2815
▁orgulloso	-11.2819
č	-11.282
▁Inglaterra	-11.282
▁ngaJ	-11.282
▁wasipi	-11.2821
mongakuaa	-11.2821
▁compone	-11.2821
▁falla	-11.2827
sqankupi	-11.283
▁jawekeska	-11.2834
▁3:16).	-11.2837
▁12:2	-11.2838
▁historial	-11.2838
▁culpable	-11.2838
▁probar	-11.2838
▁jupanakax	-11.2842
▁JESÚS	-11.2847
▁ituvakuéra	-11.2847
▁Estudiantes	-11.2847
▁ndaikatuiha	-11.2847
▁Bernard	-11.2847
▁aumento	-11.285
ũme	-11.285
▁wakinpiqa	-11.2852
▁1948	-11.2855
▁entorno	-11.2855
▁tumba	-11.2857
pxäna	-11.286
▁respectiva	-11.286
▁ninguno	-11.286
▁rirqa	-11.2861
▁haimete	-11.2861
ñorairõ	-11.2866
▁sapallan	-11.2868
▁sá	-11.2875
▁Jaikuaaháicha	-11.2876
▁Rréinore	-11.2877
▁ÑE	-11.2878
▁aplicaciones	-11.2878
▁kene	-11.288
▁israelitakuna	-11.2881
▁considerado	-11.2885
▁vinieron	-11.2887
▁contamina	-11.2888
metro	-11.2889
mbotove	-11.2892
travaho	-11.2892
▁niyta	-11.2894
▁Paraná	-11.2894
▁cabal	-11.2897
▁preocupación	-11.29
▁Absalón	-11.2901
▁ESTUDIO	-11.2901
▁Policía	-11.2901
▁capaces	-11.2901
▁contestó	-11.2901
▁ojupi	-11.2902
▁añadió	-11.2904
xonbi	-11.2911
▁uraqi	-11.2911
▁Simón	-11.2912
ificó	-11.2912
▁sonqolla	-11.2912
Ý	-11.2914
▁gallina	-11.2915
Necesita	-11.2915
▁chawpi	-11.2915
▁munaychaku	-11.2916
▁Ehechauka	-11.2916
▁león	-11.2916
▁peligroso	-11.2918
▁Andre	-11.2918
▁tetãnguéra	-11.2918
▁Chaynataq	-11.2924
▁ñembohekopyahu	-11.2925
landa	-11.2925
▁Fundación	-11.2928
ICA	-11.2928
landia	-11.2929
____	-11.2932
▁estaría	-11.2933
▁corregir	-11.2935
▁4:4	-11.2941
▁tapykuehoha	-11.2942
▁ayamarq	-11.2942
quien	-11.2948
véramo	-11.2955
▁Mendoza	-11.2955
▁impresión	-11.2956
▁ogusta	-11.2958
▁chopa	-11.296
▁reiko	-11.2968
▁cerr	-11.2968
huica	-11.2968
▁rimarqa	-11.2968
quiera	-11.2969
▁consuela	-11.2969
▁mohendahavusu	-11.2969
▁negativo	-11.297
▁hekojoja	-11.2971
▁ampara	-11.2972
▁qamkuna	-11.2973
nny	-11.2976
▁kutimu	-11.2977
ducción	-11.2981
▁41:	-11.2983
▁tecpatl	-11.2983
▁transporte	-11.2983
></	-11.2984
▁Peter	-11.2991
▁topon	-11.2994
▁Augusto	-11.2995
rasy	-11.2995
▁ndaikatuvéi	-11.2997
▁penderehe	-11.2997
▁PAGINAPI	-11.2997
▁ojehupyty	-11.2997
▁situasiónpe	-11.2997
▁estatal	-11.2997
▁echar	-11.2998
pasiénsia	-11.2999
qninkuna	-11.3001
▁mbovy	-11.3001
▁emocionante	-11.3002
XI	-11.3007
ztli	-11.3007
▁opavavé	-11.301
▁2007-2010	-11.301
▁Hebreas	-11.301
▁cerrar	-11.3013
▁Fre	-11.3014
▁ojapótava	-11.3015
▁sigan	-11.3015
:26).	-11.3016
▁omoherakuã	-11.3016
▁kuaapy	-11.302
▁1978	-11.3021
▁ipláta	-11.3024
▁msnm	-11.3024
▁ingles	-11.3024
▁horqo	-11.3025
▁dige	-11.3025
▁sutinta	-11.3031
hárupi	-11.3034
▁Mēxihco	-11.3038
▁kompromíso	-11.3038
▁Estudio	-11.3038
▁Raúl	-11.3038
▁jerére	-11.3038
▁navega	-11.3039
▁Túva	-11.3042
▁ogueropu	-11.3042
▁Caín	-11.3042
▁eliminado	-11.3044
▁suticha	-11.3051
úrõ	-11.3051
▁comproba	-11.3052
▁idisipulokuéra	-11.3054
ìx	-11.3056
▁lleve	-11.3057
▁abundante	-11.3057
▁trataba	-11.306
▁Ariqipa	-11.3065
▁Claudio	-11.3065
▁instrucción	-11.3065
▁administrador	-11.3066
▁yanapasunki	-11.3068
▁espirituál	-11.3069
▁rimari	-11.3069
▁Ikatú	-11.3071
▁pór	-11.3071
▁electo	-11.3074
nikichik	-11.3076
▁Mexihco	-11.3079
▁mbeguekatúpe	-11.3079
▁salmísta	-11.3079
▁tanteaku	-11.3087
▁apóstata	-11.3093
▁universal	-11.3093
▁concepto	-11.3093
▁ventaja	-11.3094
Eclesiastés	-11.3094
▁yomera	-11.3097
▁irundy	-11.3098
▁willarqa	-11.3099
▁400	-11.3104
▁wishawe	-11.3104
▁kósa	-11.3105
▁interesado	-11.3106
ḇ	-11.3107
▁fragmento	-11.3107
▁pudieron	-11.311
mombyry	-11.3113
▁ojesareko	-11.3114
▁tetãygua	-11.3114
uérpo	-11.3116
▁Caballero	-11.3121
▁ejati	-11.3122
▁28).	-11.3133
▁histórico	-11.3135
CIONES	-11.3135
▁pinta	-11.3135
▁kamachisqanta	-11.3136
sqankuraykum	-11.3139
▁jupanaka	-11.3142
▁Elias	-11.3144
▁PRO	-11.3144
▁ojevale	-11.3145
▁honrar	-11.3147
▁Griegas	-11.3149
▁sirkuíto	-11.3149
▁parrafo	-11.3149
sqaymanta	-11.3149
▁brasileño	-11.3163
▁inteligente	-11.3163
▁atributo	-11.3164
▁Alejandro	-11.3166
sipxi	-11.3167
▁iñiynin	-11.3169
▁funcionario	-11.3172
▁uña	-11.3174
spayá	-11.3177
▁oguerú	-11.3177
ñakãrapu	-11.3177
‘	-11.3178
▁tiyanku	-11.3179
éndole	-11.3179
ónico	-11.318
▁achkallaña	-11.3181
▁qatiqninkunata	-11.3183
japóma	-11.3184
▁Cá	-11.3187
▁representante	-11.3189
▁crítico	-11.3191
▁exacto	-11.3191
▁challwa	-11.3191
▁símbolo	-11.3191
ayasi	-11.3191
▁35).	-11.3194
vertir	-11.3194
▁ruwananchik	-11.3195
▁patrón	-11.3205
▁llamkaq	-11.3205
▁descansa	-11.3205
▁Premio	-11.3205
▁oikóvo	-11.3208
▁bienestar	-11.3208
ibake	-11.321
▁hesakã	-11.3211
mokõi	-11.3213
▁1938	-11.3214
public	-11.3215
sapukái	-11.3219
▁Kimsa	-11.3219
IMA	-11.322
hasávo	-11.3225
▁anual	-11.3226
▁llapa	-11.323
▁Finalmente	-11.3233
▁atribu	-11.3235
▁chanin	-11.3236
▁paita	-11.3243
▁morotĩ	-11.3247
▁Anqash	-11.3247
▁munanku	-11.3247
Nóta	-11.3247
▁cubrir	-11.3248
▁Nocon	-11.3251
pxaraki	-11.3252
▁repeti	-11.3252
▁munaspaqa	-11.3253
hecháva	-11.3254
▁prima	-11.3257
▁Marcel	-11.326
▁mencionó	-11.3261
▁sufrió	-11.3261
▁procesa	-11.3263
▁rimaspan	-11.3265
▁panel	-11.3267
Jaweti	-11.3268
▁autoriza	-11.3269
▁willakuyta	-11.327
▁pruwinsyap	-11.3271
▁flu	-11.3272
▁ihentekuéra	-11.3275
▁yaqapaschá	-11.3275
▁aseguró	-11.3275
▁moderno	-11.3276
▁Fuente	-11.3281
tzon	-11.3282
tianbi	-11.3284
flu	-11.3284
▁preocupaciones	-11.3286
▁cincuenta	-11.3289
▁desprecia	-11.3289
▁ejemplar	-11.3289
explika	-11.3289
▁vence	-11.3289
▁nzaya	-11.329
▁ógape	-11.329
▁ruwasqa	-11.3292
▁frase	-11.3292
▁OJE	-11.3295
▁oguapy	-11.3296
▁Georg	-11.3297
▁constante	-11.33
▁rembe	-11.33
Heta	-11.3303
▁negocia	-11.3303
▁kárselpe	-11.3304
▁130	-11.3306
rendápe	-11.3309
▁Mishiku	-11.3309
tiuh	-11.3311
huatzin	-11.3317
▁mantuvo	-11.3317
▁aranway	-11.3317
▁pensó	-11.3318
▁sentí	-11.332
▁decide	-11.332
▁oĩtaha	-11.3322
▁sutillata	-11.3322
▁huknin	-11.3325
yeteri	-11.3327
▁wataña	-11.3329
▁wakcha	-11.3329
▁Péva	-11.333
▁fla	-11.3331
▁hembiguaikuéra	-11.3331
▁Aswanqa	-11.3332
▁Abrir	-11.3333
▁nirqaku	-11.3339
kuera	-11.3339
gli	-11.3339
▁19:1	-11.334
▁productor	-11.3341
▁misericordioso	-11.3346
▁traducciones	-11.3346
▁argentino	-11.3346
▁consulte	-11.3346
▁desastre	-11.3347
▁rembipuru	-11.3347
▁3:​1	-11.3347
▁enferma	-11.3351
▁punchawmi	-11.3352
joayhu	-11.3354
Ef	-11.3355
▁Dé	-11.3356
▁Té	-11.3358
▁nañane	-11.3359
▁Félix	-11.336
▁osê	-11.336
▁POR	-11.3361
▁calor	-11.3361
▁ñä	-11.3362
▁amiga	-11.3365
▁ojeruré	-11.3369
▁Servi	-11.3374
▁ojokuaikuaáva	-11.3374
▁quinientos	-11.3374
▁Pikchu	-11.3374
▁rebelde	-11.3374
▁pitapas	-11.3375
▁hikuta	-11.3376
tividad	-11.3378
Puedo	-11.338
nchis	-11.3381
▁Oñepyrũ	-11.3383
▁orresivi	-11.3384
▁ukhamat	-11.3386
▁bibliapa	-11.3387
▁juzgar	-11.3387
▁gobierna	-11.3388
▁temprano	-11.3388
▁médica	-11.339
▁debió	-11.3394
▁jonibaon	-11.3397
-15).	-11.3398
▁moõ	-11.3398
▁Urin	-11.3398
▁conferencia	-11.34
versa	-11.3402
▁manifestante	-11.3403
▁Salomon	-11.3403
▁»	-11.3403
▁Manamá	-11.3405
▁160	-11.3406
▁maypi	-11.3408
▁willay	-11.3409
▁deberá	-11.341
▁reforma	-11.3412
▁pyhareve	-11.3413
value	-11.3416
▁invisible	-11.3417
▁apariencia	-11.3417
▁sufren	-11.3418
▁moñe	-11.342
▁aipytyvõ	-11.3422
▁caminar	-11.3423
▁demonio	-11.3426
▁tembiapoite	-11.3428
▁deberán	-11.3429
▁ijehénte	-11.3431
▁jahupytýta	-11.3435
▁fuimos	-11.3438
▁imaginar	-11.3439
titud	-11.3442
▁ñawi	-11.3443
▁ñanemba	-11.3446
▁desesper	-11.3446
▁opciones	-11.3446
▁ñangarekoha	-11.3446
▁jaagradese	-11.3447
▁Inti	-11.3447
▁ayudarlos	-11.3448
▁nacionmanta	-11.345
▁1966	-11.3453
▁moambue	-11.3456
▁kaqlla	-11.3458
myasãi	-11.3461
-21).	-11.3462
▁ñuqa	-11.3463
▁cantante	-11.3465
▁VII	-11.3466
▁nisqanku	-11.3469
▁yupaykuna	-11.347
▁Jane	-11.3473
▁personalmente	-11.3474
▁Silva	-11.3476
▁uñsta	-11.3477
:34,	-11.3478
rõguáicha	-11.3478
▁yvytu	-11.3482
▁terminado	-11.3488
▁taytacha	-11.3488
▁ukanx	-11.3489
myengovia	-11.3489
▁capitulo	-11.3489
▁Jainxon	-11.3489
▁seguirá	-11.3489
▁ovisita	-11.349
ERO	-11.3492
ÁN	-11.3494
▁servísio	-11.3496
▁conservar	-11.3497
▁llorar	-11.3497
▁mburuvichakuéra	-11.3498
▁4:3	-11.3503
▁ipotĩ	-11.3503
▁infierno	-11.3503
▁ndohejái	-11.3503
Ustedes	-11.3512
gular	-11.3514
▁actualmente	-11.3516
▁ñasẽ	-11.3516
▁nacionales	-11.3517
▁cabe	-11.3517
▁imboriahúva	-11.3518
▁Richard	-11.3518
▁escena	-11.3518
▁banco	-11.3519
▁Mayor	-11.352
▁adquirir	-11.3523
▁Ferr	-11.3526
▁colores	-11.3531
▁fútbol	-11.3532
▁abrió	-11.3533
▁pashini	-11.3533
▁mbyte	-11.3533
:29).	-11.3535
▁impo	-11.3536
▁Fal	-11.3539
▁patio	-11.3546
▁Venezuela	-11.3547
▁ojetradusi	-11.3547
▁terremoto	-11.3547
▁vínculo	-11.3547
▁positivo	-11.3547
▁Entéro	-11.3547
▁sonqomanta	-11.3548
▁okañy	-11.355
amongetá	-11.3551
ýma	-11.3555
▁[1]	-11.3556
:17,	-11.3556
mongy	-11.3556
̱efi	-11.3561
▁Bretaña	-11.3561
▁instrumento	-11.3561
▁Rahab	-11.3561
▁esforzarnos	-11.3562
▁vestido	-11.3562
▁salvaje	-11.3567
▁ñandejehe	-11.3568
-10)	-11.3568
▁canal	-11.357
▁aprendí	-11.3576
▁Fred	-11.3581
▁cristianokunapa	-11.3583
▁Christ	-11.3584
▁factores	-11.3584
▁machaq	-11.3586
▁consiste	-11.359
▁núnka	-11.359
▁pedazo	-11.3591
siérto	-11.3592
▁kantunmi	-11.3597
▁1951	-11.36
sqankuqa	-11.3604
▁cristianismo	-11.3605
▁iñimportanteha	-11.3605
▁escuche	-11.3605
▁literal	-11.3605
▁Vivi	-11.3608
▁presu	-11.3609
​4	-11.3613
ÓN	-11.3615
▁inicia	-11.3615
epytyvõrã	-11.3616
nkirinaka	-11.3617
Kulumbya	-11.3619
brero	-11.362
▁dedicación	-11.362
▁encargado	-11.3623
▁bene	-11.3624
▁llegará	-11.3625
vére	-11.3626
▁rikuy	-11.3628
▁yachachiy	-11.3633
▁bautizó	-11.3634
▁colegio	-11.3634
▁tavaygua	-11.3634
▁cruz	-11.3635
▁rimapaya	-11.3635
▁viviendo	-11.3637
aitéta	-11.3638
▁XXI	-11.364
▁docente	-11.3642
Éxodo	-11.3642
▁jaská	-11.3642
û	-11.3642
tismo	-11.3644
▁comparte	-11.3645
▁She	-11.3646
▁oñemosẽ	-11.3647
▁economía	-11.3649
kuaápa	-11.365
▁17:3	-11.3651
▁esperando	-11.3653
▁Kunanqa	-11.3662
▁comprensión	-11.3663
▁ojuehegui	-11.3663
▁roiko	-11.3664
▁yvýpe	-11.3665
Esto	-11.3665
SAL	-11.3667
▁llamk	-11.3667
▁bibliata	-11.3668
▁Qawasun	-11.3671
rqanki	-11.3677
▁Urqunaka	-11.3678
▁kusikuywan	-11.368
▁acostumbra	-11.368
▁Imagen	-11.368
▁ikonha	-11.3681
▁autorida	-11.3682
▁mitãme	-11.3686
▁suyukuna	-11.3687
▁kasqanpi	-11.3688
▁mandamiento	-11.3693
▁lluqsi	-11.3693
▁positiva	-11.3693
americana	-11.3693
▁corto	-11.3693
▁hmända	-11.3694
▁Real	-11.3696
▁tarikunku	-11.3697
#	-11.3698
UNA	-11.3699
▁Hayt	-11.3706
▁Leon	-11.3707
▁Google	-11.3708
▁neutral	-11.3708
▁iñepyrũme	-11.3708
▁neporãva	-11.3708
Castigación	-11.371
▁establece	-11.3712
▁bibliamanta	-11.3713
▁1959	-11.3717
▁Crón	-11.3717
▁Victoria	-11.3722
nanmantaqa	-11.3725
▁}">	-11.3728
▁yatxata	-11.3731
cepción	-11.3732
▁ukanak	-11.3732
▁opeka	-11.3734
▁nahániri	-11.3737
▁Movimiento	-11.3737
▁Mariscal	-11.3737
▁kusiriku	-11.3737
▁jaskati	-11.3738
▁jatianra	-11.3739
▁ñemohenda	-11.3746
▁Noey	-11.3746
▁vecino	-11.375
▁oiméva	-11.375
▁destruido	-11.3752
▁1925	-11.376
▁constituye	-11.3765
▁quedaron	-11.3766
apóta	-11.3766
hayhúgui	-11.3767
▁Profecía	-11.3767
▁indefinido	-11.3767
▁especifica	-11.3767
▁Punu	-11.3767
▁uelis	-11.3768
▁proviene	-11.3769
▁axeti	-11.3769
▁escapar	-11.377
▁marcadores	-11.3773
▁Gobiernon	-11.3773
▁periódico	-11.3781
▁Qillqa	-11.3781
▁egoísta	-11.3781
▁hetápe	-11.3783
▁ninan	-11.3783
▁aprovechar	-11.3784
▁hapichakuéra	-11.3785
viene	-11.3791
▁orepytyvõ	-11.3795
▁Rubén	-11.3796
▁Yachachi	-11.3796
▁pluma	-11.3797
▁alabar	-11.3799
▁peichagua	-11.38
▁cumplirá	-11.3801
▁ñakambia	-11.3804
Sabe	-11.3804
▁negra	-11.3805
▁Inca	-11.3809
▁hmunts	-11.3811
▁mantenga	-11.3814
▁omotenondéva	-11.3816
lizar	-11.3816
cencia	-11.3817
vɨ	-11.382
▁17:1	-11.3824
▁sigamos	-11.3827
▁12:3	-11.3829
fle	-11.383
rieka	-11.3831
ístico	-11.3832
äwix	-11.3832
Cristo	-11.3833
▁Chaypim	-11.3833
▁1942	-11.3834
▁1932	-11.3838
▁Emoĩ	-11.3839
▁Galilea	-11.3841
▁abundancia	-11.3842
véntema	-11.3842
▁bestia	-11.3842
akotero	-11.3844
Allin	-11.3845
▁yachachwan	-11.3853
▁plato	-11.3853
▁nieto	-11.3854
▁próxima	-11.3856
▁Tembipuru	-11.3857
▁pytyvõhára	-11.3858
ANA	-11.3859
▁jaskáakin	-11.3859
▁jucha	-11.3863
▁presentado	-11.3868
4:​1	-11.3871
▁conozca	-11.3871
▁finales	-11.3871
▁verá	-11.3873
▁electoral	-11.3873
▁anata	-11.3874
▁lamenta	-11.3878
▁juru	-11.3883
▁carretera	-11.3886
▁corriente	-11.3886
▁ndehegui	-11.3886
▁Josef	-11.3888
irix	-11.3891
▁tuichaite	-11.3893
▁prestar	-11.3896
▁kunjama	-11.3898
▁tembiasakue	-11.3902
▁Marka	-11.3904
▁Zu	-11.3905
▁180	-11.3906
tachari	-11.3909
▁1935	-11.3914
▁experimentado	-11.3915
▁Society	-11.3916
▁juajuha	-11.3916
▁logrado	-11.3919
▁sasacha	-11.3921
▁6:3	-11.3925
▁1931	-11.3931
▁torre	-11.3931
▁Windows	-11.3931
▁músico	-11.3931
▁refugia	-11.3931
▁excepción	-11.3933
▁inmoralidad	-11.3935
▁VIII	-11.3935
▁canción	-11.3936
▁oadora	-11.3937
▁Cordero	-11.3937
s̱e	-11.3938
▁irnaq	-11.3939
Kay	-11.3939
▁Chili	-11.3945
▁adulterio	-11.3946
▁Página	-11.3946
▁Awki	-11.3948
cendi	-11.396
▁HTTP	-11.3961
▁recordó	-11.3961
▁pumbyry	-11.3962
▁escala	-11.3963
▁cuadro	-11.3963
GO	-11.3965
▁tuqin	-11.3968
venir	-11.3969
▁qosan	-11.3971
▁oñandu	-11.3976
▁retira	-11.3976
BrandShortName	-11.3976
▁Católica	-11.3976
▁caracteres	-11.3976
▁perfección	-11.3976
▁104	-11.3977
▁musya	-11.3977
▁conversaciones	-11.398
codes	-11.3981
▁hukkunapa	-11.3981
apói	-11.3983
▁oñembyasy	-11.3986
▁afirmó	-11.3992
▁desconocido	-11.3992
▁esclavitud	-11.3992
▁válida	-11.3992
▁quedan	-11.3993
▁kasukuy	-11.3993
tiliz	-11.3997
▁Janiw	-11.3998
▁bautizarse	-11.4001
▁asisten	-11.4005
▁keen	-11.4009
jeývo	-11.4012
kanke	-11.4016
▁religionkuna	-11.4016
▁Tenda	-11.4021
▁Añete	-11.4021
henói	-11.4021
▁Feli	-11.4022
▁temimbo	-11.4022
véase	-11.4022
▁gira	-11.4023
konsegi	-11.4026
tyaro	-11.403
▁pagina	-11.4036
▁Chuqiyapu	-11.4037
▁filosofía	-11.4037
Malaquías	-11.4037
▁conmemora	-11.4037
▁Humanos	-11.4037
▁demostr	-11.4038
ikove	-11.4039
▁Embojuruja	-11.4041
▁añeha	-11.4041
▁ombovy	-11.4042
▁mexicano	-11.4042
ENTE	-11.4045
▁cabello	-11.4045
▁preparación	-11.4047
Pero	-11.4048
▁kallpancharqa	-11.405
▁cine	-11.4057
▁pohýi	-11.4059
▁Llapallan	-11.4059
▁ÑANDEJÁRA	-11.406
tepetl	-11.4063
Léase	-11.4068
ʉ	-11.4068
▁Contra	-11.4068
▁canciones	-11.4074
▁Wañu	-11.4074
▁xá	-11.4076
▁ehérsito	-11.4083
▁iñiyninkupi	-11.4083
myandy	-11.4083
▁Organización	-11.4084
▁Amazon	-11.4089
▁saranta	-11.4091
▁ipasiénsia	-11.4096
▁preserva	-11.4098
▁ācatl	-11.4098
▁nacer	-11.41
▁hũ	-11.4102
▁salieron	-11.4104
▁kachkaspan	-11.4105
▁chico	-11.4111
▁jaoka	-11.4111
▁categoría	-11.4114
▁inferior	-11.4114
▁dibuja	-11.4114
limit	-11.4114
▁tocar	-11.4114
▁revisión	-11.4115
▁límite	-11.4116
▁Opaite	-11.4122
▁cultiva	-11.4122
▁tukuru	-11.4127
GUI	-11.4129
▁CSS	-11.4129
▁markachirinaka	-11.4129
▁habilidades	-11.4129
nombra	-11.413
▁onqoy	-11.4131
:27).	-11.4131
▁tabla	-11.4133
ñemitỹ	-11.4135
▁pocas	-11.4139
▁potencia	-11.4141
▁prejuicio	-11.4144
▁ÑANDE	-11.4144
▁regiones	-11.4144
Recuerda	-11.4145
▁afrontar	-11.4145
▁saludable	-11.4147
▁curar	-11.4148
▁ohupytýta	-11.4155
▁evita	-11.4155
▁1910	-11.4159
▁establezca	-11.416
▁inquietud	-11.416
▁culto	-11.4161
▁firmemente	-11.4163
▁Jeike	-11.4167
▁1870	-11.4168
▁opiniones	-11.4175
▁Alonso	-11.4175
▁gradua	-11.4176
▁Cuba	-11.4178
japyhy	-11.4184
▁preciosa	-11.4186
TOS	-11.4197
▁estudiánte	-11.4197
chú	-11.42
keska	-11.4201
▁vuestro	-11.4206
▁ruwaspa	-11.4208
▁punchawpi	-11.4209
▁costo	-11.4214
▁1929	-11.4221
▁círculo	-11.4222
▁Uruguay	-11.4222
▁uyariy	-11.4223
▁bebon	-11.4224
▁doble	-11.4227
▁Parece	-11.4229
familia	-11.4231
Éxo	-11.4233
Kastilla	-11.4233
cioso	-11.4233
sqaykimanta	-11.4234
·	-11.4237
▁ceremonia	-11.4237
▁estadounidense	-11.4237
▁adoradores	-11.424
▁separado	-11.4249
kayotl	-11.425
▁influye	-11.4253
▁cliente	-11.4253
▁basura	-11.4253
▁gratitud	-11.4253
▁decreto	-11.4257
▁okaru	-11.4259
rqanichu	-11.426
Levítico	-11.4261
ẽrendú	-11.4264
▁itoca	-11.4265
▁provecho	-11.4268
ñemoarandu	-11.4269
▁páh	-11.4269
▁Alex	-11.427
▁ymave	-11.4272
▁Llu	-11.4276
winakax	-11.4282
▁influir	-11.4284
▁exclusiva	-11.4284
PDF	-11.4284
▁Janeiro	-11.4285
▁Hanaq	-11.4286
▁ipuku	-11.4292
▁tuakuéra	-11.4296
▁11:3	-11.4298
Imakunata	-11.4299
dónde	-11.4301
▁avión	-11.4302
▁9:1	-11.4304
▁jugar	-11.431
diferente	-11.431
▁kuyasqan	-11.431
▁isin	-11.4313
hecháramo	-11.4315
▁adecuado	-11.4315
▁claridad	-11.4315
▁Navidad	-11.4315
▁muralla	-11.4317
▁ñembyai	-11.4331
▁Vargas	-11.4331
tlahtoca	-11.4331
▁espalda	-11.4331
Leey	-11.4332
qhu	-11.4333
▁verano	-11.4333
ENT	-11.4334
chäwi	-11.4336
▁ñanesãmbyhy	-11.4336
▁estrella	-11.4337
machti	-11.434
▁internacionales	-11.4344
▁Enterove	-11.4347
▁noĩri	-11.4347
▁ikanwe	-11.4348
▁acercarse	-11.4353
▁utt	-11.4354
▁katupyry	-11.4358
▁Qhichwa	-11.4362
▁advierte	-11.4362
▁jaservív	-11.4362
▁Ñapensamína	-11.4362
▁atiyniyoq	-11.4362
▁determinación	-11.4362
▁Emoneĩ	-11.4363
▁denomina	-11.4363
▁esfuerzan	-11.4366
Toda	-11.437
jepytaso	-11.4372
▁someti	-11.4375
nahuati	-11.4376
▁Diluvio	-11.4378
▁nendive	-11.4378
▁postura	-11.4379
▁8:1	-11.4381
▁repente	-11.4381
▁©	-11.4383
Manam	-11.4383
▁riqueza	-11.4385
▁xeati	-11.4385
▁sentar	-11.4387
▁yachasun	-11.4387
▁tsinki	-11.4387
▁amigokuéra	-11.4391
lizado	-11.4391
▁watanpi	-11.4393
▁tōnalli	-11.4394
▁exterior	-11.4394
▁Herodes	-11.4394
▁escogido	-11.4394
tepec	-11.4395
▁munasqan	-11.4396
xtli	-11.4404
:1-4).	-11.4405
▁Knorr	-11.441
▁SOBRE	-11.441
▁oscuridad	-11.441
▁parecida	-11.441
▁escolar	-11.441
▁nomomba	-11.4412
▁Vicente	-11.4412
▁ohechaukáta	-11.4415
▁Israelguápe	-11.442
▁wanaku	-11.4423
▁conformidad	-11.4425
▁Satanasqa	-11.4431
▁arapy	-11.4435
▁upémarõ	-11.4441
▁exhortación	-11.4447
taynawa	-11.4447
▁tapia	-11.4448
▁ojejoko	-11.4449
▁adquiri	-11.4451
▁tiempochaku	-11.4454
ville	-11.4456
▁Ecuador	-11.4457
▁pichqa	-11.4457
▁banca	-11.4458
▁Vamos	-11.4458
▁1917	-11.4464
▁coopera	-11.4467
▁kuyakuy	-11.4467
▁judía	-11.4468
▁kaqkunaqa	-11.447
▁aprecio	-11.4473
LLA	-11.4474
▁molesta	-11.4475
ejeruré	-11.4476
▁consideraba	-11.4482
▁ojepredika	-11.4487
▁cuestiona	-11.4489
▁iñehémplo	-11.4489
▁Quienes	-11.4489
▁palacio	-11.4489
▁Romero	-11.4489
▁bandera	-11.4489
▁visible	-11.4491
tï	-11.45
▁riká	-11.4502
TEN	-11.4503
ísima	-11.4503
▁ñamano	-11.4503
LL	-11.4504
The	-11.4504
▁thogi	-11.4505
tificación	-11.4507
▁112	-11.4514
▁portugués	-11.4521
▁glorifica	-11.4521
▁iñermáno	-11.4521
▁persevera	-11.4521
▁jahechakuaá	-11.4523
áiramo	-11.4523
▁micro	-11.4523
▁piensanku	-11.4525
moingo	-11.453
▁género	-11.4537
▁pregúnta	-11.4537
▁KAQ	-11.4537
▁Yalapi	-11.4538
▁pensado	-11.4541
pdf	-11.4546
▁24:3	-11.4546
▁chayllaraq	-11.455
▁regula	-11.4551
%3$	-11.4553
▁Caleb	-11.4553
▁confiable	-11.4559
▁asociación	-11.4563
▁guaraníme	-11.4567
▁divorcia	-11.4569
▁patriarca	-11.4569
▁Faraón	-11.4569
PP	-11.4569
▁Yuyari	-11.4571
▁Flores	-11.4572
▁subir	-11.4573
etépa	-11.4578
▁Cuauh	-11.4581
▁siguiendo	-11.4585
▁tōchtli	-11.4585
▁vehículo	-11.4585
▁ohendúva	-11.4586
▁jist	-11.4587
▁kunayman	-11.4588
▁runakunamanta	-11.4588
cē	-11.4589
▁yupaychay	-11.4592
▁ojoayhu	-11.4592
quixti	-11.4596
poderoso	-11.4597
▁Gómez	-11.4601
▁entretenimiento	-11.4601
▁reconoció	-11.4601
▁enseguida	-11.4601
▁Raquel	-11.4601
▁kavaju	-11.4601
▁herida	-11.4602
governa	-11.4602
▁ñongatupyre	-11.4603
▁taller	-11.4603
▁Corea	-11.4603
solusion	-11.4604
▁ogueroviáva	-11.4606
▁Espera	-11.4608
▁kusikuy	-11.4609
▁timatsi	-11.4609
▁Indígena	-11.4611
▁fabrica	-11.4617
▁metztli	-11.4617
▁Grecia	-11.4617
▁kèq	-11.462
▁sombra	-11.4621
▁ñawpari	-11.4621
Preguntas	-11.4624
▁opensá	-11.4625
▁ohecháva	-11.4625
▁Wakinku	-11.4625
Oñe	-11.4627
▁1934	-11.4629
provlema	-11.4633
▁Bernabé	-11.4633
▁obispo	-11.4633
CION	-11.4634
▁representación	-11.4635
▁gustaba	-11.4635
▁piensarqa	-11.4637
▁aproximadamente	-11.4639
▁phaxsit	-11.4646
▁eskuéla	-11.4646
▁áñorupi	-11.4648
▁konsiénsia	-11.465
▁iñu	-11.4652
▁qhaway	-11.4654
▁yachasunchik	-11.4656
▁7:9	-11.4662
▁israel	-11.4664
▁reun	-11.4665
▁Distritupiqa	-11.4666
▁Sociedad	-11.4666
▁dulce	-11.4666
▁sallqa	-11.4667
▁mínimo	-11.4668
▁cuáles	-11.4668
▁planea	-11.4677
▁eipurú	-11.4682
▁esforzamos	-11.4682
▁específica	-11.4682
▁siguieron	-11.4682
▁mbytépe	-11.4682
▁Saulo	-11.4682
chrome	-11.4684
▁10:2	-11.4684
▁Krist	-11.4684
▁Évape	-11.4685
▁conduce	-11.4685
▁yanapayku	-11.4686
yōtl	-11.4688
▁suyunaka	-11.4688
▁morales	-11.4691
▁regularmente	-11.4693
▁vital	-11.4695
QUI	-11.4695
evéicharõ	-11.4698
▁manuscrito	-11.4698
▁tlahtohuani	-11.4698
▁ocurrido	-11.4698
▁rekovépe	-11.47
▁yokabo	-11.4701
Cuán	-11.4703
▁sérro	-11.4704
▁explicación	-11.4714
▁jaskaaxon	-11.4715
▁presupuesto	-11.4715
▁Radio	-11.4715
▁mochiuh	-11.4716
▁Ciertamente	-11.4731
▁ndoguerekói	-11.4731
▁árka	-11.4731
▁llampu	-11.4731
▁hingi	-11.4732
▁partida	-11.4732
▁diablo	-11.4732
▁ymaite	-11.4733
jopý	-11.4745
▁Tenochtitlan	-11.4747
▁antepasados	-11.4747
▁hustísia	-11.4747
▁séptimo	-11.4747
▁versiculo	-11.4747
▁resuelto	-11.4747
▁suministr	-11.4747
▁refería	-11.4748
▁Imagínese	-11.4749
▁pozo	-11.4751
▁ikyre	-11.4753
▁hunta	-11.4754
nexti	-11.4756
▁Mariano	-11.4757
▁herido	-11.4759
▁takiq	-11.4763
▁vivienda	-11.4764
▁recomienda	-11.4764
▁Public	-11.4764
kunanmanta	-11.4766
▁oporohayhu	-11.4768
kumpli	-11.4768
▁ixquich	-11.4772
▁qawaspa	-11.4772
▁yachasqanchik	-11.4772
-14).	-11.4775
Willakuy	-11.4776
GI	-11.4779
▁Brooklyn	-11.478
▁crítica	-11.478
▁pregunte	-11.478
▁reveló	-11.478
▁tlacatl	-11.478
▁odefende	-11.4781
▁parcial	-11.4782
:​6	-11.4784
▁Arhintina	-11.4787
tiliztli	-11.4793
▁California	-11.4796
▁iñumílde	-11.4796
▁procura	-11.4798
yvoty	-11.4805
▁basta	-11.4809
▁nemandu	-11.4812
▁definitiva	-11.4813
presentá	-11.4813
ERÃ	-11.4815
▁Kikin	-11.4818
▁recientemente	-11.4822
▁Wanka	-11.4827
▁felicit	-11.483
haichaite	-11.4831
▁avance	-11.4832
▁suerte	-11.4832
Qui	-11.4839
▁estuvieron	-11.4839
▁Parque	-11.4839
▁nisqanqa	-11.4842
yninchikqa	-11.4844
%(	-11.4845
▁Uficial	-11.4846
▁yachasqan	-11.4847
▁Plaza	-11.4854
▁facultades	-11.4856
▁preocup	-11.4862
▁empieza	-11.4862
▁expresiones	-11.4862
▁direcciones	-11.4862
▁aprenda	-11.4863
▁Tract	-11.4866
ático	-11.4867
▁derrota	-11.4869
▁consolar	-11.487
▁japyhypy	-11.4871
▁1937	-11.4874
▁gasta	-11.4874
moñeñandu	-11.4875
▁Governánte	-11.4879
▁Circuito	-11.4879
▁pevépa	-11.488
INA	-11.4885
▁parque	-11.4887
▁asumir	-11.4888
▁reipytyvõ	-11.4889
▁adicionales	-11.489
▁Prometida	-11.4895
▁numerosos	-11.4895
▁variedad	-11.4895
▁aguã	-11.4898
▁dejará	-11.49
▁Michel	-11.4902
▁Emombe	-11.4907
▁osolusiona	-11.4909
jahechaukáta	-11.491
▁entendimiento	-11.4912
▁liberal	-11.4912
▁ñepyrũrã	-11.4913
hechákuri	-11.4914
▁eskuélape	-11.4916
▁ruranapaq	-11.4917
▁viajante	-11.4919
▁escritores	-11.492
▁sujeto	-11.4921
▁apachi	-11.4922
▁kaniku	-11.4922
▁huey	-11.4922
▁Alianza	-11.4929
▁lénto	-11.4929
▁codicia	-11.4945
▁operde	-11.4946
pruebe	-11.4946
▁yoinabo	-11.4947
▁só	-11.4953
Haykapi	-11.4953
▁Tanto	-11.496
▁préso	-11.4962
▁publicó	-11.4962
▁llakipayakuq	-11.4963
▁afectado	-11.4967
▁ñamoĩ	-11.4973
▁Pallan	-11.4977
▁nisqakunaqa	-11.4978
▁wakllanwatam	-11.4979
▁defiende	-11.4979
▁6:2	-11.4979
▁runamasinchik	-11.4979
katupyrý	-11.4981
yetari	-11.4982
mboaje	-11.4989
▁onanke	-11.4989
Añetehápe	-11.4995
▁Thomas	-11.4996
▁posesión	-11.4996
▁iñirũnguéra	-11.4996
xiuh	-11.4996
▁uvei	-11.4997
▁oiporiahuvereko	-11.4997
▁obvio	-11.4998
▁ñakumpli	-11.4999
▁funcionamiento	-11.4999
▁puerto	-11.5
▁ukampi	-11.5001
▁3:5	-11.5001
▁1982	-11.5005
defende	-11.501
▁ijurujáva	-11.5012
▁tlatohuani	-11.5012
▁Tendayke	-11.5012
▁ipyahuvéva	-11.5012
▁colonia	-11.5012
cāyōtl	-11.5013
▁"¡	-11.5014
▁bebida	-11.5016
Conoce	-11.502
▁relacionadas	-11.502
▁nacionkuna	-11.5027
▁Segunda	-11.5029
▁tentaciones	-11.5029
▁solía	-11.5029
▁Louis	-11.5031
▁utjki	-11.5037
▁debate	-11.504
fundi	-11.5042
▁Yaqapaschá	-11.5046
▁adecuada	-11.5046
▁Noemí	-11.5046
▁Chaymantam	-11.5046
▁omoñe	-11.5053
ford	-11.5055
▁debilita	-11.5055
▁sembr	-11.5055
▁PÁGINAS	-11.5058
▁Cristiano	-11.5058
▁Mardoqueo	-11.5063
▁virtud	-11.5063
▁yaqhip	-11.5066
▁servía	-11.5069
éame	-11.5072
▁10:16	-11.5075
▁suyos	-11.5077
▁oñehundí	-11.508
▁alianza	-11.508
▁entendía	-11.5081
rekóramo	-11.5095
▁ponerse	-11.5097
▁hekópe	-11.5097
▁ciudadano	-11.5099
▁pared	-11.5105
▁Frank	-11.5106
▁reñeñandu	-11.5106
hejarei	-11.5106
emomba	-11.5107
Jehova	-11.5113
▁mirando	-11.5114
▁Asiria	-11.5114
▁kitipi	-11.5114
▁examen	-11.5114
▁expulsado	-11.5115
moñepyrũjey	-11.5116
▁analizaremos	-11.5119
▁trajo	-11.5119
ykiwan	-11.5123
ékena	-11.5126
▁qallarirqan	-11.5128
▁Lista	-11.513
▁Bíbliagui	-11.5131
▁Abrahan	-11.5131
▁hués	-11.5132
▁ñawincha	-11.5132
▁hallar	-11.5133
▁llumpa	-11.5135
▁Itália	-11.5148
▁Ciencias	-11.5148
Ñoqa	-11.5148
moañete	-11.5148
▁pieza	-11.5152
momichĩ	-11.5158
▁Táva	-11.5159
▁Véase	-11.5165
▁evolución	-11.5165
▁rrekuádro	-11.5165
▁inspirado	-11.5165
▁tradición	-11.5166
▁cooperación	-11.5171
▁amuyt	-11.5173
mbarete	-11.5174
nakanx	-11.5177
ykipi	-11.5178
▁uñj	-11.518
▁reaccionó	-11.5182
▁generoso	-11.5182
▁jaqinakax	-11.5189
:1-5).	-11.519
ök	-11.5192
▁Agr	-11.5194
▁volverá	-11.5195
▁imperfección	-11.5199
▁vivido	-11.5199
Daniel	-11.5199
▁canasta	-11.52
▁Error	-11.52
▁previa	-11.5201
▁paykunawan	-11.5202
▁celoso	-11.5204
Verdad	-11.521
KUÉRA	-11.5216
▁célula	-11.5216
▁nopensái	-11.5216
vénte	-11.522
▁madero	-11.5224
▁Jasy	-11.5228
▁Asimismo	-11.5233
▁rembiguái	-11.5233
▁recibí	-11.5233
▁jueces	-11.5233
▁proxy	-11.5233
▁complace	-11.5234
▁altepetl	-11.5235
▁estudiando	-11.5235
▁colaboradores	-11.5236
label	-11.5238
▁yoikana	-11.5241
▁sujeta	-11.5244
▁agrega	-11.5248
▁reheguáva	-11.5248
▁Itaipú	-11.525
▁rysýi	-11.525
▁yanapakuyninta	-11.525
▁gotho	-11.5254
▁iñaña	-11.5255
▁Embojuaju	-11.5257
monitor	-11.5257
▁Sobre	-11.5258
▁kóicha	-11.5261
▁detalle	-11.5265
▁5:14	-11.5267
▁inspiración	-11.5267
▁aprobado	-11.5268
▁ijyvate	-11.5273
eveichagua	-11.5275
▁consideración	-11.5282
▁Nicolás	-11.5285
▁velocidad	-11.5285
▁Español	-11.5285
▁Ruiz	-11.5285
▁Tomás	-11.529
▁tarda	-11.529
▁uñjasi	-11.5301
▁jaipota	-11.5302
▁Oficina	-11.5302
▁activista	-11.5302
▁japoro	-11.5302
▁recopila	-11.5304
Jud	-11.5306
▁CHE	-11.5308
tuvieron	-11.531
yetiro	-11.5311
▁temer	-11.5316
ÉN	-11.5317
▁Filipinas	-11.5319
▁apacibilidad	-11.5319
▁Esaú	-11.5319
▁huevos	-11.532
▁rabé	-11.5323
▁encontraron	-11.5324
0.0	-11.5325
▁ésta	-11.5328
▁impresiona	-11.5329
▁IKATU	-11.5337
▁Hacienda	-11.5337
▁Ayuda	-11.5338
▁ndaiporimo	-11.534
▁Ñahesa	-11.5341
▁declaraciones	-11.5345
Jaoka	-11.5349
▁koiran	-11.5351
▁noñemoneĩri	-11.5354
▁paylla	-11.5354
Yvypóra	-11.5355
ptiki	-11.5356
▁serviqkuna	-11.5358
ykuspan	-11.5367
MU	-11.5371
▁maestra	-11.5372
etéta	-11.5383
▁4:8	-11.5386
jokóma	-11.539
▁casó	-11.5393
▁ukjam	-11.5394
▁Jefe	-11.5396
jagarra	-11.5399
áala	-11.54
▁warmanku	-11.54
▁cobra	-11.5401
▁Academia	-11.5406
▁departamental	-11.5406
▁Huñunaku	-11.5406
▁parezca	-11.5406
▁obligación	-11.5407
▁133	-11.5408
▁huchayoq	-11.5409
▁memite	-11.541
tlahtol	-11.5411
▁kamayuq	-11.5415
ruspanmi	-11.5416
▁Galeano	-11.5424
imayna	-11.5424
▁regularidad	-11.5427
ntendéi	-11.5432
Anchatam	-11.5433
PYTYVÕ	-11.5441
▁sinagoga	-11.5441
▁voluntaria	-11.5441
▁club	-11.5441
▁fomenta	-11.5441
▁empecé	-11.5442
▁opina	-11.5444
inoax	-11.5454
satisfac	-11.5459
▁Parroquia	-11.5459
▁kóntrape	-11.5459
▁Número	-11.5459
▁embr	-11.5466
wananchikta	-11.5468
▁Rojas	-11.5468
verdad	-11.5475
▁ciudadanía	-11.5476
▁criminal	-11.5477
▁pág	-11.5478
▁escoge	-11.549
▁Medio	-11.5493
▁apopyvusu	-11.5494
▁contempla	-11.5494
▁Filipos	-11.5494
▁hichpa	-11.5495
▁periodo	-11.5497
▁tembiaporã	-11.5502
▁oñeguenohẽ	-11.5504
▁iporãveha	-11.5508
▁Yoyo	-11.5511
▁Ayala	-11.5514
cpac	-11.552
▁riqsisqa	-11.5523
kanon	-11.5523
▁terror	-11.5523
▁exhorta	-11.5523
▁Judicial	-11.5529
▁explora	-11.5529
▁criterio	-11.5529
▁recuperación	-11.5532
volucion	-11.5533
▁critica	-11.5533
▁hatarichi	-11.5533
ÉVA	-11.5545
▁Guillermo	-11.5547
▁extraordinario	-11.5547
▁kompléto	-11.5547
▁Popular	-11.5547
▁oñembyai	-11.5547
▁profesionales	-11.5548
▁condenado	-11.5548
▁tekotevẽterei	-11.5549
▁cuadra	-11.5549
▁Cinco	-11.555
▁allintapuni	-11.5552
▁Cent	-11.5559
▁Hágsater	-11.5565
▁Nemachiyōtīlli	-11.5565
▁oparupiete	-11.5565
▁cólera	-11.5565
▁jehai	-11.5568
muerte	-11.5568
▁sentimiento	-11.5572
▁ñamotenonde	-11.5573
▁Nombre	-11.5576
ipotáramo	-11.5582
Ilustraciones	-11.5582
▁Lingũísticas	-11.5582
▁descubierto	-11.5582
▁Añadir	-11.5582
▁envidia	-11.5583
▁ndache	-11.5584
▁moneda	-11.5586
▁sesenta	-11.5586
▁Senadores	-11.5587
▁jehechajey	-11.5587
▁yachanku	-11.5588
Debería	-11.5588
vendesi	-11.5596
▁bits	-11.5599
▁1927	-11.5599
▁Egíptope	-11.56
▁Tampoco	-11.56
▁oñekumplí	-11.56
▁global	-11.56
▁disposiciones	-11.5601
▁alegre	-11.5605
▁cuento	-11.5607
▁yachaspa	-11.5609
uhtli	-11.5616
▁existir	-11.5618
momorã	-11.5624
carga	-11.563
▁Hunin	-11.5635
▁evréo	-11.5636
▁espesiál	-11.5636
▁ogoverná	-11.5636
o̱ho̱	-11.5636
▁efod	-11.5636
CIA	-11.5639
▁nisán	-11.5639
▁Ñamomba	-11.5646
yamake	-11.5647
▁Leví	-11.5653
▁Benjamín	-11.5654
▁falleció	-11.5654
▁sorpresa	-11.5654
▁violento	-11.5654
▁yuriwi	-11.5654
▁Oscar	-11.5657
▁roservi	-11.5663
▁yokata	-11.567
▁Kashamarka	-11.5672
▁régimen	-11.5672
▁XIX	-11.5672
▁previsto	-11.5672
▁injusto	-11.5672
▁financia	-11.5672
▁rovake	-11.5672
hekýi	-11.5673
▁22:3	-11.5673
▁13:4	-11.5679
▁separar	-11.5687
5:​1	-11.5689
▁Pennsylvania	-11.569
▁actualizaciones	-11.569
▁mosaica	-11.569
▁invitó	-11.569
tlajtol	-11.569
▁progresar	-11.569
▁eliminará	-11.5693
gieron	-11.5705
▁discusión	-11.5708
▁techapyrã	-11.5708
▁walltay	-11.5708
▁construye	-11.5708
▁perseguido	-11.5708
cabeza	-11.5713
▁Julia	-11.5717
▁Yuraq	-11.5718
depende	-11.5719
▁reciba	-11.5723
▁Techapyrã	-11.5726
▁Archivo	-11.5726
▁Bakebo	-11.5726
manjina	-11.5726
▁contenta	-11.5731
▁atiynin	-11.5732
▁jeporu	-11.5735
▁nacionkunapi	-11.5736
▁directa	-11.5738
p̱u	-11.5739
joguá	-11.574
▁príncipe	-11.5744
▁animál	-11.5744
▁gigante	-11.5744
▁moderna	-11.5744
▁USA	-11.5744
▁qatikacha	-11.5745
▁2:​1	-11.5747
▁establecerá	-11.575
UU	-11.5751
▁difund	-11.5761
▁renonderã	-11.5762
▁Índice	-11.5762
▁Jichha	-11.5762
▁vieja	-11.5763
mbyry	-11.5764
añuã	-11.5766
▁reducir	-11.5769
▁socio	-11.5769
▁abraza	-11.577
▁manchakuspa	-11.5772
▁qorqa	-11.5772
▁poeta	-11.5773
▁protegido	-11.578
▁escuchó	-11.578
▁Henry	-11.578
UNI	-11.578
ñemoñe	-11.5782
▁quince	-11.5782
tlahtōl	-11.5786
Tú	-11.5788
▁kasqanku	-11.5789
▁ojekuaáva	-11.579
Cualquier	-11.579
▁Pytyvõ	-11.5798
▁ītōca	-11.5798
▁Imperio	-11.5798
▁oprepara	-11.5798
▁Alfredo	-11.5798
▁yanapakuykuna	-11.58
▁Pachantin	-11.58
▁ndojehe	-11.58
APO	-11.5804
▁Misiones	-11.5804
▁guasú	-11.5805
ÁVA	-11.5809
š	-11.5816
▁regresó	-11.5816
▁estableció	-11.5816
▁íntegro	-11.5816
▁cáncer	-11.5816
▁Creación	-11.5821
CHI	-11.5825
▁trabajaba	-11.5831
▁electorales	-11.5832
▁intervención	-11.5834
▁purureko	-11.5835
▁puchukarqan	-11.5835
▁Morales	-11.5854
▁jaylli	-11.5855
▁iskaynin	-11.5864
Ndép	-11.5867
▁Wankawillka	-11.5871
▁Upeichaite	-11.5871
▁wichiyku	-11.5872
▁neskara	-11.5872
▁sarambi	-11.5876
allqa	-11.5876
▁Color	-11.5881
▁olvidemos	-11.5882
▁Emoinge	-11.5888
▁produjo	-11.5889
▁promueve	-11.5889
▁Alegre	-11.589
▁lliwmanta	-11.5893
▁Salones	-11.5893
▁Reina	-11.5894
▁fuga	-11.5897
▁kallpanchasqa	-11.59
hóvo	-11.5902
▁jaguerovia	-11.5902
▁ñoqanchikpas	-11.5906
scripciones	-11.5908
▁juramento	-11.5908
▁rastreo	-11.5908
▁Óscar	-11.5908
▁negativa	-11.5908
▁impide	-11.591
▁secretario	-11.5911
▁Virgen	-11.5913
▁Biblioteca	-11.5926
▁Querétaro	-11.5926
▁Cambiar	-11.5927
▁precisamente	-11.593
▁similares	-11.5933
katupyry	-11.5933
▁1913	-11.5935
▁iprovléma	-11.5936
▁unanchasqa	-11.5937
▁jubil	-11.5939
▁llevará	-11.594
▁chiqap	-11.5944
perhudika	-11.5944
▁administrativa	-11.5944
▁hombro	-11.5945
▁ñandutiveve	-11.5945
▁1928	-11.5948
▁ñañemongeta	-11.5951
▁sinceramente	-11.5953
▁ruranankupaq	-11.5959
▁inicial	-11.5962
▁Bolívar	-11.5963
▁ndahasýi	-11.5963
▁puchukachi	-11.5965
▁País	-11.5965
▁Años	-11.5968
▁versiones	-11.5968
Tito	-11.597
▁Eskuéla	-11.5981
▁Facultad	-11.5981
▁intendente	-11.5981
PLRA	-11.5982
▁oguerahá	-11.5982
shaninka	-11.5983
▁ajusta	-11.5983
▁munapaya	-11.5983
▁upeichaite	-11.5985
▁munasqanchik	-11.5985
Piruw	-11.5989
▁yachanapaq	-11.5989
▁añadir	-11.5992
ICHA	-11.5995
▁prudente	-11.6
▁compasivo	-11.6
▁Trabaja	-11.6
▁poravorã	-11.6
▁rendimiento	-11.6
▁ojupe	-11.6003
mbojevy	-11.6005
▁labios	-11.6005
▁olvide	-11.6007
▁quedado	-11.6009
▁mochiua	-11.601
▁ruraykuna	-11.6017
utuqsi	-11.6018
▁Hospital	-11.6018
japysaka	-11.6018
▁Recuerde	-11.6019
▁Turismo	-11.602
▁dejamos	-11.6023
▁jikxatasi	-11.6023
vérõ	-11.6027
▁Juez	-11.6031
▁chhijll	-11.6037
▁nulalí	-11.6037
▁entrevista	-11.6037
▁Tochtli	-11.6039
sunkichik	-11.6043
▁reqsiku	-11.6045
▁chaskisqan	-11.605
▁llullaku	-11.6053
ÉICHAPA	-11.6056
▁iñorganisasión	-11.6056
▁jananeki	-11.6056
▁belleza	-11.6056
▁upérupi	-11.6056
▁podér	-11.6056
▁levantó	-11.6056
▁Nazaret	-11.6056
myakã	-11.6057
▁rantinpi	-11.606
▁huñunakuyman	-11.6064
▁jehaipy	-11.607
▁Democrático	-11.6074
▁módulo	-11.6074
▁colección	-11.6074
▁kristo	-11.6074
▁qanchis	-11.6075
▁desarrollado	-11.6086
▁renov	-11.6089
▁Jordán	-11.6093
▁polítika	-11.6093
rrekonose	-11.6093
quetianra	-11.6093
▁Mekiku	-11.6093
▁oviaha	-11.6094
▁origina	-11.6097
spanchikpas	-11.6097
▁extraño	-11.6099
uvicha	-11.6099
compañ	-11.6101
▁seguramente	-11.6111
▁YACHACHIKUY	-11.6112
sakrifika	-11.6112
▁Microsoft	-11.6112
▁expectativa	-11.6112
▁satisfecho	-11.6112
▁Chaynallataqmi	-11.6112
▁Tayka	-11.6113
mbojoapy	-11.6113
▁Muerto	-11.6117
▁Astawan	-11.6118
▁Blog	-11.6124
▁llulla	-11.6124
▁ipir	-11.6126
Phil	-11.613
▁décima	-11.6131
▁PORÃ	-11.6131
▁mbyja	-11.6131
▁Suñay	-11.6134
nakapax	-11.6136
▁ñaimo	-11.6136
▁misterio	-11.6136
trabaj	-11.6137
▁aníke	-11.6138
▁ruwanapaq	-11.6142
▁Ehechajey	-11.6145
▁Eikutu	-11.6149
▁Nínive	-11.6149
▁utilizó	-11.6149
▁despierto	-11.6149
éndolo	-11.6151
▁educativa	-11.6152
▁iñiyninchikpi	-11.6154
moañeté	-11.6158
▁ropredika	-11.6166
▁Ernesto	-11.6168
:33).	-11.6168
▁Willka	-11.6168
▁piñakuynin	-11.6169
▁educativo	-11.6171
:15-17	-11.6175
▁aclara	-11.6175
▁kasukunanchik	-11.6185
▁únicamente	-11.6186
▁equilibrio	-11.6187
▁mundiál	-11.6187
▁Italya	-11.6187
▁pensamos	-11.6188
▁watukuq	-11.6191
▁deporte	-11.6191
profe	-11.6192
period	-11.6193
sistió	-11.6197
iqinch	-11.6198
▁dejemos	-11.6202
▁hallará	-11.6204
▁Ejapo	-11.6206
▁brillante	-11.6208
▁Biografía	-11.6208
▁menú	-11.6208
Sabía	-11.621
▁reservi	-11.6211
▁Manaraq	-11.6211
▁chaynallata	-11.6211
cuitla	-11.6224
▁incluir	-11.6225
▁x̱eni	-11.6225
▁transmitir	-11.6225
▁Jajepy	-11.6225
▁ahmo	-11.6235
▁tomin	-11.6238
▁Páblope	-11.6244
▁lámpara	-11.6244
▁residencia	-11.6244
▁Sistema	-11.6244
▁gentil	-11.6249
▁yanapayta	-11.6249
namic	-11.6251
▁obligaciones	-11.6252
Señor	-11.6255
LIT	-11.6258
▁Ramírez	-11.6263
▁Seguridad	-11.6263
▁despertar	-11.6263
▁estábamos	-11.6264
▁personajes	-11.6264
▁ojeskrivi	-11.6266
▁ARTÍCULOS	-11.6266
▁Eric	-11.6266
▁Tengo	-11.6271
▁8:3	-11.6272
masinkuna	-11.6273
prendieron	-11.6275
▁Legislativa	-11.6282
▁asesinado	-11.6282
▁vendisión	-11.6282
▁máquina	-11.6282
▁entiendenapaq	-11.6282
▁reúne	-11.6284
ficiencia	-11.6285
aguasú	-11.6287
▁uraq	-11.6287
Biblia	-11.629
▁aprendiendo	-11.6301
▁várko	-11.6301
▁notísia	-11.6301
▁Pastor	-11.6302
▁tembiporu	-11.6302
▁Samaria	-11.6303
ainoa	-11.6304
▁sienti	-11.6305
▁tsiere	-11.6306
▁oheká	-11.6307
prueba	-11.6313
IKO	-11.6314
7-9	-11.6317
▁ojevautisá	-11.632
▁audiencia	-11.632
▁bendice	-11.632
▁wiñaq	-11.632
▁Pilato	-11.632
▁Enseña	-11.6321
▁leyendo	-11.6322
▁Armada	-11.6324
▁Super	-11.6327
Quiere	-11.6329
▁brilla	-11.6338
▁ijapytepekuéra	-11.6339
▁destacó	-11.634
▁consumo	-11.6341
▁ciego	-11.6341
▁20:1	-11.6341
▁Chaypaqqa	-11.6344
mental	-11.6352
▁iprekursorádo	-11.6358
▁frijol	-11.6358
▁acercó	-11.6359
▁piensaspa	-11.6359
yetatsiri	-11.6359
▁tristeza	-11.6365
▁tarikuspa	-11.6368
▁qunqa	-11.6371
▁Fiscal	-11.6375
▁reputación	-11.6378
▁waranq	-11.6384
▁débiles	-11.6389
▁dientes	-11.6392
▁quchamanta	-11.6392
▁ermanokuérandi	-11.6393
▁impuésto	-11.6397
▁volumen	-11.6397
▁oñentende	-11.6397
▁gastos	-11.6398
africa	-11.6399
▁futura	-11.6401
▁bloqueo	-11.6403
▁Chaywanpas	-11.6403
▁jejoko	-11.6411
▁inhustísia	-11.6416
▁campamento	-11.6416
▁ilumina	-11.6416
▁Irlanda	-11.6416
▁mostrado	-11.6417
▁crisis	-11.6419
▁celebración	-11.6419
▁goza	-11.642
▁espiritunwan	-11.6421
▁oikuaáva	-11.6421
▁eterno	-11.6426
▁Castro	-11.6429
▁aplicable	-11.6434
cuauh	-11.6434
▁Amarumayu	-11.6436
▁Ejército	-11.6436
▁argumento	-11.6436
▁oexisti	-11.6436
▁implementa	-11.6436
▁meméramo	-11.6436
ñeimahina	-11.6436
▁Cristianas	-11.6437
sãsó	-11.6437
▁sentirá	-11.6438
▁1916	-11.6439
▁ishto	-11.644
ç	-11.6448
resãi	-11.6454
▁Internétpe	-11.6455
▁automóvil	-11.6455
▁seguimiento	-11.6455
▁instalado	-11.6456
▁caída	-11.6464
▁wañurachi	-11.6464
▁yatiqañ	-11.6468
▁ukxat	-11.6473
▁Sebastián	-11.6474
▁encuentre	-11.6474
▁eficaz	-11.6474
▁thakhi	-11.6474
▁Club	-11.6475
▁conductor	-11.6475
▁afuera	-11.6475
▁Kamachiq	-11.6477
▁llaqtakunapi	-11.648
nampiki	-11.6481
▁trabajador	-11.6489
▁ohupytýva	-11.649
▁específico	-11.6494
▁independencia	-11.6494
▁ñaneimperfékto	-11.6494
▁tormenta	-11.6494
▁ceder	-11.6494
▁orerehe	-11.6494
▁consejero	-11.6494
▁habitación	-11.6494
▁ndoikovéima	-11.6495
▁winota	-11.6495
▁intentarlo	-11.6497
HI	-11.6499
▁kawsarichi	-11.6499
MEN	-11.65
Imamantam	-11.6505
lláy	-11.6514
▁mortal	-11.6515
▁ojoaju	-11.6516
▁facil	-11.6516
▁anciana	-11.6518
mbojegua	-11.6518
▁comentario	-11.6519
▁kenai	-11.6523
▁punchawkunapi	-11.6529
▁rendir	-11.6531
▁cristiandad	-11.6533
▁santuario	-11.6533
▁ikatúma	-11.6533
▁benxoa	-11.6533
▁editado	-11.6533
▁zapato	-11.6534
▁class	-11.6538
Pitaq	-11.6544
ichéne	-11.655
▁warmakuna	-11.6551
▁compatible	-11.6552
▁Wall	-11.6563
▁ubicación	-11.6564
▁oserví	-11.6568
▁Emoambue	-11.6573
▁preguntarnos	-11.6577
▁ninantaq	-11.6581
▁dispar	-11.6584
guerahauka	-11.6589
а	-11.6592
▁estímulo	-11.6592
▁vevída	-11.6592
▁traslada	-11.6594
▁mitãnguéra	-11.6595
▁alivia	-11.6595
▁yatiyawi	-11.6599
▁qillqaypi	-11.6599
▁expone	-11.6601
pyrépe	-11.6601
▁folléto	-11.6611
▁khiti	-11.6612
▁intensa	-11.6612
▁distribución	-11.6613
▁pendiente	-11.6613
▁cría	-11.6618
▁tenonderã	-11.6619
pohýi	-11.6623
▁insist	-11.6626
ramoguáicha	-11.6628
▁Jiménez	-11.6631
▁producido	-11.6631
▁sacrificar	-11.6635
▁jugador	-11.6636
▁5:28	-11.664
cker	-11.6642
tzintli	-11.6648
▁nza̱yo	-11.6651
▁práctico	-11.6651
▁Johann	-11.6651
▁kasqankurayku	-11.6651
▁vacío	-11.6651
▁vincula	-11.6651
▁Cheqap	-11.6652
▁nacionniyoq	-11.6654
▁sutichasqa	-11.6656
▁comercio	-11.6658
Filipenses	-11.6662
▁enseñarles	-11.6668
mbojuaju	-11.667
▁campesina	-11.6671
▁cobertura	-11.6671
▁inaugur	-11.6671
▁Goliat	-11.6671
▁jawerato	-11.6671
▁omonguera	-11.6671
▁teatro	-11.6671
▁soltera	-11.6675
ẽrõite	-11.6676
▁qarikuna	-11.6677
▁munanchik	-11.6678
▁sembrado	-11.6683
▁arapokõindy	-11.6691
▁tekojoja	-11.6693
▁iñambue	-11.6696
▁extiende	-11.6697
▁multiplica	-11.6704
▁xiuhpan	-11.671
yetero	-11.6713
▁Bill	-11.6717
▁yachanankupaq	-11.6717
Sigan	-11.672
▁autorización	-11.672
▁empresario	-11.6721
▁JU	-11.6728
▁ohundí	-11.673
▁italiano	-11.673
▁manifestó	-11.673
▁mexko	-11.6731
▁japorohayhu	-11.6731
▁imperio	-11.6732
▁ohayhueterei	-11.6736
ẽmbaite	-11.6736
▁Ojekuaa	-11.6737
▁Teresa	-11.674
hechaukáta	-11.6746
▁mitrum	-11.6747
▁imparcial	-11.675
▁súbditos	-11.675
▁apacible	-11.675
▁vuestra	-11.675
▁arrastra	-11.675
▁caliente	-11.6751
tanake	-11.6752
▁18:1	-11.6754
▁ijyvy	-11.6755
▁bondadoso	-11.6766
quichihua	-11.6767
▁reunió	-11.6768
▁Europea	-11.677
▁kalindaryuyuq	-11.677
▁oprometéva	-11.677
▁reconocido	-11.677
▁raíces	-11.677
▁kawsachkanku	-11.6774
▁potencial	-11.6775
Llumpay	-11.6776
▁café	-11.6778
▁Emondo	-11.6786
▁sencillo	-11.679
▁yvyramáta	-11.679
▁añáme	-11.6791
noxiki	-11.6792
▁califica	-11.6793
▁wañuqkuna	-11.6794
▁esforzarse	-11.6796
▁m̱e	-11.6798
▁imapipas	-11.6806
▁rantiku	-11.6807
▁puchuka	-11.6809
▁fortaleza	-11.681
▁ojoajúva	-11.681
▁rrío	-11.681
▁orendive	-11.681
EKUE	-11.681
▁Wanuku	-11.6816
Acaso	-11.6819
ñembosako	-11.6822
alrededor	-11.6823
▁rápida	-11.6825
ENCIA	-11.6825
▁Bloquea	-11.6831
▁Chrome	-11.6831
▁ihénte	-11.6831
▁busque	-11.6831
▁famoso	-11.6831
bolivia	-11.6832
▁hñu	-11.6837
eichaite	-11.6841
Paraguái	-11.6843
:16,	-11.6845
▁estudiayta	-11.6847
cionado	-11.6849
▁ordenador	-11.6849
▁Ukampirus	-11.6851
▁kuatiaroguépe	-11.6851
▁primogénito	-11.6851
▁referirse	-11.6851
▁univérso	-11.6851
▁virtual	-11.6851
▁arranca	-11.6851
▁myakãha	-11.6853
▁creencia	-11.6853
▁145:	-11.6855
RÁ	-11.6855
ñemoag̃ui	-11.6856
▁adicional	-11.6858
▁paqari	-11.6861
▁bakebaon	-11.6863
▁kaspanpas	-11.6864
▁Ayakuchu	-11.6871
▁Museo	-11.6871
▁guivéma	-11.6872
▁pedimos	-11.6873
ikatúpa	-11.6873
▁uñakip	-11.6874
▁ukx	-11.6876
importante	-11.6884
Drama	-11.6885
▁oñemyesakã	-11.6885
▁wañukuptin	-11.689
▁pacífico	-11.6891
▁sobresaliente	-11.6891
▁Canaán	-11.6891
▁arroyo	-11.6892
▁1924	-11.6894
▁2.0	-11.6895
▁kuyawasqanchik	-11.6896
▁animalkuna	-11.6897
▁mayqan	-11.6901
▁escudo	-11.6903
▁Joaquín	-11.6911
▁lomímonte	-11.6911
▁pyharépe	-11.6911
▁simbólico	-11.6911
▁levadura	-11.6912
▁ilegal	-11.6912
▁Lliw	-11.6912
▁6:33	-11.6913
tlamantli	-11.6913
▁respira	-11.6914
▁satanas	-11.692
▁Guerrero	-11.6932
▁jornada	-11.6932
▁Josías	-11.6932
moakãratĩ	-11.6932
▁reunieron	-11.6933
▁Inicia	-11.6936
catca	-11.6936
▁2.000	-11.6939
mantapacham	-11.6941
Nueva	-11.6945
▁3:17	-11.6947
▁yatiyi	-11.6948
▁Seleccione	-11.6952
agradeseterei	-11.6958
señor	-11.6963
Kóva	-11.6966
▁607	-11.6972
▁evaluación	-11.6973
▁tabernáculo	-11.6973
▁preciso	-11.6973
▁ituja	-11.6973
▁naiñ	-11.6976
▁Predica	-11.6977
▁impone	-11.6977
▁hä	-11.6978
▁relaj	-11.698
▁Manataqmi	-11.6983
▁pasakusqan	-11.6984
▁Barcelona	-11.6993
▁ISBN	-11.6993
▁celular	-11.6993
▁magnífico	-11.6993
▁ndojeroviái	-11.6993
▁Walter	-11.6993
▁fundamento	-11.6993
▁impacto	-11.6993
▁veinti	-11.6993
▁allinpuni	-11.6993
▁Kawsa	-11.6995
▁xeime	-11.7001
ñemohatã	-11.7002
▁gatho	-11.7003
▁Prado	-11.7011
▁Observatorio	-11.7013
▁Timotéope	-11.7013
▁cerámica	-11.7013
▁encarcela	-11.7013
▁lingüística	-11.7013
▁frustr	-11.7014
mbokuatia	-11.7014
▁asesor	-11.7016
▁comentó	-11.7019
▁munarqaku	-11.702
▁Qawasqanchik	-11.7023
CHU	-11.7025
▁scua	-11.7027
▁ñamokyre	-11.7031
▁Primer	-11.7032
▁asesinato	-11.7034
▁diccionario	-11.7034
▁gratuita	-11.7034
▁rembiguaikuéra	-11.7034
▁5:4	-11.7045
▁ñamombarete	-11.7046
▁gracia	-11.7049
▁localidad	-11.7054
▁rogapýpe	-11.7055
ñemoag̃uí	-11.7055
▁Franz	-11.7055
▁quisiera	-11.7055
-13).	-11.7055
▁urgente	-11.7056
▁ñemoambue	-11.7056
▁Jehosafat	-11.7075
▁eternidad	-11.7075
▁lógico	-11.7075
▁Cornelio	-11.7075
▁roipytyvõ	-11.7075
▁Efeso	-11.7076
imanasqataq	-11.7076
▁Daher	-11.7078
▁llapallanchik	-11.7079
▁recoger	-11.7082
▁Kichwa	-11.7082
▁Kundaha	-11.7083
▁hurqu	-11.7083
▁impuesto	-11.7084
▁servichikurqa	-11.709
▁electr	-11.7094
▁puvlikadór	-11.7096
▁afligi	-11.7096
▁akham	-11.7098
▁dispone	-11.7099
▁yanapawarqa	-11.7102
▁qawasunchik	-11.7105
▁kongregasion	-11.7106
▁yurakuna	-11.7116
▁pelíkula	-11.7117
▁trívu	-11.7117
▁vyrorei	-11.7117
▁Duarte	-11.7117
▁convenio	-11.7117
▁decidieron	-11.7117
▁herramienta	-11.7126
▁Todavía	-11.7138
▁piloto	-11.7138
▁nubes	-11.7139
▁chiqni	-11.7139
▁criar	-11.714
▁Buena	-11.714
▁asignasión	-11.7142
▁operación	-11.7151
▁Jahechá	-11.7153
observ	-11.7157
ẽryapu	-11.7158
▁científica	-11.7158
▁levitas	-11.7158
▁cierre	-11.7158
mboguatá	-11.7178
▁Cristóbal	-11.7179
▁Josafat	-11.7179
▁Sudáfrica	-11.7179
▁filósofo	-11.7179
▁niñez	-11.7179
▁recuerde	-11.7179
▁cuello	-11.7179
▁cultivo	-11.718
▁ruina	-11.718
▁tendota	-11.7182
▁kichiua	-11.7182
provléma	-11.7183
▁aporta	-11.7192
Isaias	-11.7194
▁hapicha	-11.7197
Õ	-11.72
и	-11.72
▁Cáceres	-11.72
▁arrepentido	-11.72
▁atipanyamake	-11.72
▁patrimonio	-11.72
▁básico	-11.72
▁rechazó	-11.72
▁peteĩchagua	-11.7201
▁relee	-11.7203
▁pidieron	-11.7213
Imaynataq	-11.7215
▁jikxata	-11.7215
▁fornicación	-11.7221
▁sarnaqa	-11.7221
▁policial	-11.7222
▁Ótro	-11.7223
▁niwasqanchik	-11.7224
structor	-11.7225
▁aheja	-11.7226
▁piratsi	-11.7227
ẽrendúramo	-11.7228
▁impresionante	-11.7229
▁ñandejára	-11.7233
▁robar	-11.7239
▁predeterminado	-11.7242
▁inmortal	-11.7242
▁noĩporãi	-11.7242
▁kámbio	-11.7242
▁vecina	-11.7246
▁lurañ	-11.7249
▁escenario	-11.7249
ográfico	-11.7253
Tsika	-11.7258
▁Chayrayku	-11.7259
▁cerrado	-11.726
ikévo	-11.7262
▁Alimanya	-11.7263
▁múltiple	-11.7263
▁profundidad	-11.7263
▁unigénito	-11.7263
▁Activar	-11.7263
▁jahávo	-11.7263
▁jatibi	-11.7266
▁oyentes	-11.7269
▁runamasin	-11.7276
▁senean	-11.7277
▁tarpu	-11.7279
▁Jeremias	-11.7284
▁Unídospe	-11.7284
▁Westiora	-11.7284
▁ambiental	-11.7284
▁reconcili	-11.7284
▁Galacia	-11.7284
▁publicidad	-11.7284
▁ndajaikuaái	-11.7284
▁tupã	-11.7285
visor	-11.7285
▁pachpa	-11.7287
▁fracción	-11.7288
▁morada	-11.7289
▁Nemandu	-11.7289
▁setenta	-11.7291
kaspati	-11.7293
▁capacitación	-11.7294
▁1906	-11.7294
▁colina	-11.7299
▁colorado	-11.7301
▁Magistrados	-11.7305
▁coincide	-11.7305
▁generosidad	-11.7305
▁tráfico	-11.7305
▁apertura	-11.7305
▁destruida	-11.7305
▁Cantar	-11.7305
document	-11.7306
▁suyakuyniyoq	-11.7306
▁conseja	-11.7314
ñemantene	-11.7316
Ahora	-11.7322
otras	-11.7324
ahatã	-11.7325
▁Cordillera	-11.7326
▁hogayguakuéra	-11.7326
▁devolver	-11.7327
▁ivaietereíva	-11.7327
▁horario	-11.7327
▁inchato	-11.7327
▁Trans	-11.7343
▁oiké	-11.7347
▁numerosas	-11.7347
▁vívliko	-11.7347
▁modestia	-11.7347
▁jaqukip	-11.7347
mbojoaju	-11.7348
▁eñeha	-11.7348
flor	-11.7357
imprimi	-11.7362
▁4:16	-11.7365
▁planifica	-11.7366
′	-11.7368
▁biblioteca	-11.7368
▁vergüenza	-11.7368
▁Kristup	-11.7368
▁Personal	-11.7368
▁éstos	-11.7369
▁hukllawaku	-11.7369
▁pensemos	-11.7369
ógrafo	-11.7369
▁fallo	-11.737
▁guíe	-11.7371
mbohasá	-11.7371
▁estándar	-11.7383
▁divorcio	-11.739
▁secundaria	-11.739
▁carcel	-11.739
▁Baruc	-11.7392
▁donaciones	-11.7393
▁comunicarse	-11.7401
arory	-11.7401
о	-11.7411
▁ansiedad	-11.7411
▁legislador	-11.7411
▁sirvió	-11.7411
▁visual	-11.7412
▁considere	-11.7416
▁llave	-11.742
▁apsu	-11.7421
▁Francis	-11.7425
▁jurídica	-11.7432
▁ostudiáva	-11.7432
▁cuidadosamente	-11.7432
▁kiekari	-11.7432
▁viviente	-11.7432
▁javépa	-11.7433
▁jaskaakin	-11.7434
▁integrantes	-11.7438
▁canoa	-11.7439
▁facultad	-11.7441
▁emociones	-11.7443
▁1.000	-11.7452
▁Pédrope	-11.7454
▁desobediencia	-11.7454
▁ijeheguíva	-11.7454
▁ñaaprendé	-11.7454
▁bolsa	-11.7455
▁apopyrã	-11.7455
aixia	-11.7457
▁kachun	-11.7457
▁propone	-11.7462
▁Simon	-11.7466
▁15:4	-11.7472
segíramo	-11.7473
▁sucedido	-11.7475
▁talentos	-11.7476
▁combina	-11.7476
hecháma	-11.7481
▁asusta	-11.7482
▁digna	-11.7485
▁pohã	-11.749
ñemoñare	-11.7493
cultural	-11.7494
▁Kuarahy	-11.7497
▁sientífiko	-11.7497
▁ñemiguáva	-11.7497
▁duele	-11.7498
▁oñemomombyry	-11.7498
▁cristo	-11.7503
guarda	-11.7506
▁Derecho	-11.7513
▁sacrific	-11.7514
▁caracteriza	-11.7518
▁pacífica	-11.7518
▁hag̃uánte	-11.7518
▁situada	-11.7519
▁expulsa	-11.7519
▁kullaka	-11.7519
-27).	-11.752
▁Lipis	-11.7523
▁Opera	-11.7525
▁1905	-11.7529
ñatakiw	-11.7529
▁yoikin	-11.7529
Colosenses	-11.7537
▁hmä	-11.7538
Control	-11.754
Eclesiast	-11.754
▁histórica	-11.754
▁ajuste	-11.7541
▁níima	-11.7542
clus	-11.7542
▁apamu	-11.7544
primir	-11.7546
▁gobernación	-11.7551
▁Banco	-11.7553
▁millon	-11.7553
Jeremías	-11.7558
ikotevẽi	-11.7561
▁acumula	-11.7562
▁Franco	-11.7562
▁VIDA	-11.7563
▁puente	-11.7567
TÉ	-11.7573
▁pasasqanman	-11.7581
▁redentor	-11.7583
▁pruéva	-11.7583
japórõ	-11.7583
▁Sodoma	-11.7584
▁hekopotĩ	-11.7585
▁localiza	-11.7585
▁ñanembovy	-11.7585
▁reunido	-11.7587
▁investigadores	-11.7587
▁derrib	-11.7592
▁Axeamisnin	-11.7605
▁CANCIÓN	-11.7605
▁Mercedes	-11.7605
▁īhuīc	-11.7605
jketl	-11.7605
▁waranqantin	-11.7607
▁nombramiento	-11.7607
▁ohechauká	-11.7609
▁recurri	-11.7617
▁oiporú	-11.7622
▁Federico	-11.7627
▁chichimeca	-11.7627
▁defensor	-11.7627
▁madurez	-11.7627
vusúpe	-11.7627
▁máxima	-11.7627
▁Chinchay	-11.7627
rresiví	-11.7627
▁2:15	-11.7628
▁(2005	-11.763
▁favorable	-11.7631
▁Karai	-11.7634
▁pintor	-11.7635
▁oipurú	-11.7641
▁Susan	-11.7642
Yaqachu	-11.7642
▁Gobiernonmanta	-11.7646
uximaya	-11.7648
▁Méhiko	-11.7649
▁absoluto	-11.7649
▁increíble	-11.7649
▁intelectual	-11.7649
▁razonamiento	-11.7649
▁hábil	-11.7649
▁piadosa	-11.7649
▁Mesias	-11.765
tantari	-11.7654
▁Bíbliare	-11.767
▁votõ	-11.767
▁comerciante	-11.7671
▁sayapaku	-11.7676
▁collar	-11.7676
:3-5	-11.7678
▁extensiones	-11.7692
▁propietario	-11.7692
▁Investig	-11.7692
▁modesto	-11.7693
▁pleno	-11.7693
▁emoambue	-11.7694
▁lanzamiento	-11.7695
:34).	-11.7696
wananchikmanta	-11.7697
▁comité	-11.7697
▁michĩvéva	-11.7708
▁Irréino	-11.7714
▁triunf	-11.7715
▁aparoni	-11.7715
▁oficio	-11.7716
katikanai	-11.7719
▁Barrio	-11.7722
▁2:9	-11.7724
▁arxat	-11.7727
puvlikasionkuéra	-11.7736
▁estrategia	-11.7736
▁manifiesto	-11.7736
▁ndogustái	-11.7736
▁resucitó	-11.7736
▁rrománo	-11.7736
▁pákto	-11.7736
▁vejez	-11.7736
▁Huehue	-11.7736
▁musical	-11.7737
▁wischu	-11.7738
▁ikainko	-11.774
Donde	-11.7752
▁quizá	-11.7756
rresponde	-11.7756
▁pensé	-11.7757
▁cotidiana	-11.7758
▁resistencia	-11.7758
▁imboriahu	-11.7758
▁tembiasa	-11.7759
nauati	-11.7761
artículo	-11.7779
hayhúramo	-11.7781
▁IMDb	-11.7781
▁peticiones	-11.7782
▁vigor	-11.7783
▁peichaite	-11.7784
▁tentado	-11.7784
▁pasaruptin	-11.7787
▁arunaka	-11.7788
1-5	-11.7793
stitución	-11.7796
.000.000	-11.7797
▁kachamu	-11.7799
▁Abigail	-11.7803
▁evangelizador	-11.7803
▁pehẽngue	-11.7803
▁oñandúva	-11.7803
▁compuesto	-11.7805
▁ídolo	-11.7807
▁oguerekó	-11.782
▁haykapi	-11.7822
http	-11.7824
▁OCSP	-11.7825
▁infraestructura	-11.7825
▁inútil	-11.7825
▁majoría	-11.7825
▁demónio	-11.7825
▁rueda	-11.7825
▁cuánta	-11.7826
▁dificultad	-11.7834
ẽjoaju	-11.7835
▁ideprovecho	-11.7845
▁kristiána	-11.7847
▁dirigía	-11.7847
▁qillqt	-11.7847
▁manifestación	-11.7847
▁añetéva	-11.7848
▁sordos	-11.7848
▁traiciona	-11.7848
▁botón	-11.7855
▁Bogado	-11.7856
▁débil	-11.7857
▁amachasqa	-11.7858
duct	-11.7861
▁Emoñe	-11.7867
Rut	-11.7868
Ezequiel	-11.7869
▁bicicleta	-11.787
▁convicción	-11.787
▁(15/	-11.787
▁huñunakuykuna	-11.7871
▁Mesko	-11.7872
▁tratamiénto	-11.7872
▁atento	-11.7891
▁Jezabel	-11.7892
▁Quchapampa	-11.7892
▁limpieza	-11.7892
▁Cervantes	-11.7892
▁hekojojáva	-11.7893
▁tronco	-11.7895
▁Fiscalía	-11.7895
▁oñemoambue	-11.7895
despedi	-11.7898
▁Ñawpa	-11.791
▁mochihua	-11.7911
▁Tlen	-11.7911
vergonza	-11.7914
▁contemporáneo	-11.7914
▁iroñaaka	-11.7914
▁infancia	-11.7914
▁Musuq	-11.7914
▁mbói	-11.7914
▁ciclo	-11.7915
▁Congregacion	-11.7937
▁insignia	-11.7937
▁Yachaywasi	-11.7937
▁inocente	-11.7937
▁ojetopa	-11.7939
▁sonqoyoq	-11.7945
▁12:4	-11.7946
▁wawanaka	-11.7948
▁nanay	-11.7949
ẽpapára	-11.7959
▁católico	-11.7959
▁Gustavo	-11.7959
KUAA	-11.7959
▁bojä	-11.7959
▁kimisha	-11.7959
Permitir	-11.796
onomía	-11.7962
▁favorito	-11.7964
▁división	-11.7966
▁especialista	-11.7967
▁agarra	-11.7972
▁ovejakuna	-11.7979
▁quedaba	-11.798
jeroviáramo	-11.7982
▁doméstico	-11.7982
▁jurisdicción	-11.7982
▁prisionero	-11.7982
▁Quintana	-11.7982
▁Bueno	-11.7983
▁yvýre	-11.7983
Ñande	-11.7987
▁acost	-11.7992
:6-8	-11.7994
▁tantearurqa	-11.8
html	-11.8004
▁Estadística	-11.8005
▁oscuro	-11.8005
▁Patria	-11.8005
▁ŕi	-11.8005
etereígui	-11.8011
rekóma	-11.8012
▁convoca	-11.8014
▁blogger	-11.8014
▁literatura	-11.8027
mbotuichá	-11.8027
▁sólida	-11.8028
▁abarca	-11.8029
MÍ	-11.8029
▁contaba	-11.8031
▁Qispi	-11.8032
▁Obras	-11.8033
ipotágui	-11.8042
▁qosqan	-11.8043
nakaruw	-11.8049
▁financiera	-11.805
▁parámetro	-11.805
▁mbegue	-11.805
▁característica	-11.8051
▁difundir	-11.8054
▁runankuna	-11.8054
ihqui	-11.8056
▁factor	-11.8066
▁Macedonia	-11.8073
▁indispensable	-11.8073
▁órdenes	-11.8073
▁refirió	-11.8073
▁injusta	-11.8073
▁bonito	-11.8074
▁presiona	-11.8074
▁tuichaitereíva	-11.8075
▁varones	-11.8075
Key	-11.8082
▁laboral	-11.8086
▁Actualiza	-11.8096
▁Alemáña	-11.8096
▁Nirqataqmi	-11.8096
▁PREGUNTA	-11.8096
▁concluir	-11.8096
▁evidencia	-11.8096
▁American	-11.8096
▁ijerére	-11.8096
Israel	-11.8096
tlanauatil	-11.81
▁Enviar	-11.8101
:30).	-11.8102
▁constitucional	-11.8108
▁INFORMA	-11.8118
▁JavaScript	-11.8118
▁Rutherford	-11.8118
▁awqaq	-11.8119
▁Busca	-11.8126
:10-12	-11.813
▁Ferreira	-11.8141
▁́echi	-11.8142
▁okarati	-11.8143
▁agradecido	-11.8144
▁jaskatax	-11.8144
▁rebela	-11.8146
▁jasegí	-11.8147
omomba	-11.8152
stituir	-11.8154
condiciona	-11.8163
▁ijapostolkuéra	-11.8164
▁traducido	-11.8164
▁Sofía	-11.8164
▁bloque	-11.8178
Winisuyla	-11.8187
▁Apurimaq	-11.8187
▁DISPOSICIÓN	-11.8187
▁Portugal	-11.8187
▁Palacio	-11.8188
mondýi	-11.8188
▁bailar	-11.8188
▁Hallará	-11.8188
▁guaréicha	-11.819
iembre	-11.8196
Amós	-11.8208
▁Qullqi	-11.8211
▁ikorasõ	-11.8211
▁músika	-11.8211
▁HTML	-11.8211
▁decepciona	-11.8211
▁promoción	-11.8211
▁sensación	-11.8211
▁hierro	-11.8211
juaju	-11.8212
▁Arthur	-11.8234
▁Magdalena	-11.8234
▁algoritmo	-11.8234
▁ingeniero	-11.8234
▁recordatorio	-11.8234
▁tranquilo	-11.8234
▁dádiva	-11.8234
▁Africa	-11.8234
▁respondi	-11.8235
▁ñaaguanta	-11.824
nīn	-11.8241
propia	-11.8253
▁auxiliar	-11.8257
▁trígo	-11.8257
▁oguejy	-11.8257
▁medicamento	-11.8257
▁explota	-11.8257
▁honradez	-11.8258
▁atrev	-11.8272
▁Anton	-11.8274
ñehenói	-11.8277
▁accesible	-11.828
▁ministeriál	-11.828
▁valentía	-11.828
▁qulqi	-11.828
tsonka	-11.8287
▁dedican	-11.8288
▁exceso	-11.8288
▁determinado	-11.8289
▁umalliqnin	-11.8292
kytĩ	-11.8296
▁académico	-11.8303
▁obtuvo	-11.8303
erechakuaa	-11.8303
▁anhela	-11.8304
IEN	-11.832
▁kostúmbre	-11.8327
▁mboguatahára	-11.8327
▁catalán	-11.8327
▁moldea	-11.8329
▁iuan	-11.833
pxañapa	-11.8335
▁2:16	-11.8339
studiánte	-11.834
xquich	-11.8345
▁itraváho	-11.835
▁resumen	-11.835
▁oñekuave	-11.835
▁jakiribi	-11.835
▁álgo	-11.835
▁aconsejó	-11.8374
▁inesperado	-11.8374
▁sostiene	-11.8374
▁ceniza	-11.8375
unchawninmi	-11.8377
▁jakoma	-11.8377
▁desarrolladores	-11.8379
▁baritia	-11.8384
jeroky	-11.8385
ñemotiémpo	-11.8397
▁estómago	-11.8397
▁intercambio	-11.8397
▁efectiva	-11.8397
▁jepéva	-11.8398
▁alivio	-11.8398
▁tolera	-11.8399
moambué	-11.84
▁Nabal	-11.8404
clusión	-11.8415
▁Jerónimo	-11.8421
▁calendario	-11.8421
▁incorrecto	-11.8421
▁neskáakin	-11.8421
[...]
